const ai01= '{"layers":[{"out_depth":21,"out_sx":1,"out_sy":1,"layer_type":"input"},{"out_depth":50,"out_sx":1,"out_sy":1,"layer_type":"fc","num_inputs":21,"l1_decay_mul":0,"l2_decay_mul":1,"filters":[{"sx":1,"sy":1,"depth":21,"w":{"0":-0.8044627535731743,"1":0.3540396585648096,"2":0.1603080391572679,"3":-0.37361159016947854,"4":0.2245591457047075,"5":0.02512204222613391,"6":-0.9910587548874863,"7":-0.09242394881058814,"8":-0.22342730312137415,"9":0.021063991405981326,"10":-0.0532467693797521,"11":-0.11287610973574078,"12":-0.12877919942613866,"13":0.12292575131519767,"14":0.34107081706660053,"15":0.038655394348292675,"16":0.20749993720132565,"17":-0.08937707219159474,"18":-0.11976878906722392,"19":-0.19864701324947345,"20":0.02646678450080833}},{"sx":1,"sy":1,"depth":21,"w":{"0":0.08961587245323997,"1":-0.13311394849973077,"2":0.0003072986512691897,"3":-0.08295950238657217,"4":0.09704097062803796,"5":-0.23998694963689873,"6":-0.12650083224987638,"7":-0.1616953720207464,"8":-0.06035367262079154,"9":-0.32107256552620095,"10":-0.20525264944242738,"11":-0.06770279672723482,"12":0.42825745286612293,"13":0.22791525630509715,"14":-0.11889195705157295,"15":-0.08758871454815388,"16":-0.011907222502950081,"17":0.0890490710976334,"18":-0.011406160368722986,"19":-0.47287066929320665,"20":-0.041527404386183055}},{"sx":1,"sy":1,"depth":21,"w":{"0":0.03820299145920069,"1":0.09527890054899878,"2":0.08735676479421028,"3":-0.2100081932506063,"4":-0.23525696766272827,"5":0.11429806762751386,"6":0.053339704078035455,"7":-0.27791076575549206,"8":-0.21682616111217454,"9":-0.2346766432589042,"10":0.13672991046949584,"11":-0.08156421950250663,"12":-0.14328350722868646,"13":-0.05159070020615081,"14":-0.09533194855666625,"15":-0.18173833857831084,"16":0.33763866199976605,"17":-0.2412050996044228,"18":-0.2730799317477275,"19":-0.47279167190712856,"20":-0.10065765443651632}},{"sx":1,"sy":1,"depth":21,"w":{"0":-0.2639203507579795,"1":-0.052878101356063585,"2":-0.1103173317934883,"3":0.06408322754324072,"4":-0.12065720823600583,"5":-0.015235108664217832,"6":0.3720136375891563,"7":-0.39994893064346465,"8":-0.12416113971689449,"9":0.02920707508424632,"10":-0.2397488127511585,"11":0.09292130677064221,"12":-0.1747116398471236,"13":0.07316794043311015,"14":0.19101438509142907,"15":0.19716382320140427,"16":0.14120014412131301,"17":-0.3070974960614746,"18":0.10539688912005289,"19":-0.1933083926984136,"20":0.2571829795022558}},{"sx":1,"sy":1,"depth":21,"w":{"0":-0.13513069603510355,"1":0.05287683971728145,"2":-0.09500618731803424,"3":-0.0984249980959164,"4":0.2875904726324364,"5":0.06900847486076381,"6":0.6044010930088285,"7":0.4087624362618668,"8":0.27521775163037077,"9":0.05232292662896139,"10":0.2462935861418678,"11":-0.11231356856661982,"12":0.105960872597015,"13":0.2252122786741828,"14":0.12569046331567843,"15":-0.13726434037509153,"16":0.26935930560773164,"17":0.474516398957611,"18":-0.10073616704836559,"19":-0.010796687363820598,"20":0.05130412926743173}},{"sx":1,"sy":1,"depth":21,"w":{"0":-0.7953501231603615,"1":0.07803305125064408,"2":0.18981111836607337,"3":-1.6068267449559028,"4":0.05487950343614907,"5":-0.3099236693910399,"6":-0.18741587705273063,"7":0.1088417646897807,"8":-0.304139603677209,"9":-0.06690870682368143,"10":-0.12838044070532553,"11":0.07486849192595336,"12":0.38073200698996346,"13":0.12406707677017405,"14":0.09201210661333095,"15":0.003597638591900336,"16":0.2197099866919294,"17":-0.12607395011620556,"18":-0.20587369916363235,"19":0.10827540566981507,"20":0.13153983946882616}},{"sx":1,"sy":1,"depth":21,"w":{"0":-0.30768831074075187,"1":-0.16869451477800632,"2":0.03059410299648597,"3":-0.11827085655866387,"4":0.07689624409324695,"5":-0.04209590990637824,"6":-0.7166729848741369,"7":0.6220633521482755,"8":0.1300383525576834,"9":-0.08586205257468067,"10":0.32832991267739475,"11":0.14349974389840686,"12":0.06524767013969983,"13":-0.25914106799422804,"14":-0.06104443632895458,"15":-0.0220964438852367,"16":-0.3336599592928006,"17":-0.18327159312875552,"18":0.22211304931340967,"19":0.14489149283066607,"20":0.1811401664320562}},{"sx":1,"sy":1,"depth":21,"w":{"0":-0.21633371166736085,"1":-0.2151212306717619,"2":-0.10735803788094658,"3":0.17006289903345864,"4":0.028795076724725917,"5":-0.03784889372901569,"6":-0.3276375916171368,"7":-0.22790162598730673,"8":-0.25746122381214753,"9":-0.18252289589734666,"10":0.2352945561690482,"11":-0.07726654669839242,"12":-0.00878731957387128,"13":0.3864474561022649,"14":0.3816555068833468,"15":-0.3388258610303117,"16":0.010514267036192007,"17":-0.3007444397167833,"18":-0.2674402174170216,"19":0.19214025016231034,"20":-0.11639491092242188}},{"sx":1,"sy":1,"depth":21,"w":{"0":0.6391126683877706,"1":-0.33177940356846014,"2":-0.18541667368782105,"3":-0.2102613930365006,"4":-0.3515649418558806,"5":-0.1612595960050427,"6":-0.02522406930574483,"7":0.32642045434818934,"8":-0.08825792023894272,"9":-0.24366465747418894,"10":-0.46177421080701025,"11":-0.14418301694724195,"12":0.3557566288435574,"13":0.14853521646003756,"14":-0.2847609132352429,"15":-0.2059812794011706,"16":0.22499816855062868,"17":-0.19276098918959592,"18":-0.28305070060308185,"19":0.35761385211480956,"20":0.27767360387144513}},{"sx":1,"sy":1,"depth":21,"w":{"0":-0.3549168509999944,"1":0.14900269397009838,"2":-0.25872212903128583,"3":-0.37092137594330155,"4":0.15167537823711913,"5":-0.12391559484760337,"6":0.4360701994305765,"7":0.32626838265400393,"8":-0.08790457028729394,"9":0.3353083398900179,"10":0.29653080680151533,"11":-0.010636966847966538,"12":-0.005969252731354084,"13":-0.18308901319926085,"14":-0.2885468190226189,"15":-0.51639959068613,"16":0.0669352155017506,"17":-0.16979254812682068,"18":0.09554821302950103,"19":0.21507082578048262,"20":0.18693024896782712}},{"sx":1,"sy":1,"depth":21,"w":{"0":-0.14357195129733671,"1":-0.055184985078747605,"2":0.07720795472328174,"3":-0.23126132345455672,"4":-0.3646061620771011,"5":-0.06057183266546383,"6":0.016544148068215032,"7":-0.08696606802442415,"8":0.21620989247541827,"9":0.0459949983204411,"10":0.11936113789630844,"11":-0.24642959834084946,"12":-0.1288081023435119,"13":0.5300104668946233,"14":-0.21114660681744987,"15":-0.02927355844373956,"16":-0.3345608523503245,"17":-0.0040120445805535785,"18":-0.4322554095852714,"19":-0.10592050070465195,"20":-0.12071909211634192}},{"sx":1,"sy":1,"depth":21,"w":{"0":1.4953473469358303,"1":0.15072650087951137,"2":-0.08525361882302057,"3":0.4251824191426631,"4":-0.157456884008172,"5":-0.3226465862838853,"6":-0.19639909628785532,"7":-0.0002667639975557263,"8":-0.026159852410137352,"9":0.06867170828857422,"10":0.38138564730357083,"11":0.009732711905262125,"12":0.2811707287743263,"13":0.1036431646121362,"14":0.18719559875931283,"15":0.09077289124942235,"16":0.021613722360927866,"17":0.0865437617427666,"18":-0.04965510227121393,"19":-0.03233108292579285,"20":-0.04406079305787974}},{"sx":1,"sy":1,"depth":21,"w":{"0":-0.4439611193043672,"1":-0.24294365111212604,"2":-0.1978889199295249,"3":1.6934125070925155,"4":0.16385920972900847,"5":0.1943189769625395,"6":-0.23186615843609287,"7":0.16707344894743692,"8":-0.013704011729036408,"9":-0.06911027892687396,"10":0.27075863177106035,"11":0.09856911556896,"12":0.5693985100381964,"13":0.1396170229683825,"14":0.0781776458452231,"15":0.012700042258339423,"16":0.01150398238840987,"17":-0.18005652194527444,"18":-0.02311639775378913,"19":0.013175347469251229,"20":-0.03469661346143551}},{"sx":1,"sy":1,"depth":21,"w":{"0":-1.1613042610162163,"1":0.43153990877934123,"2":0.27606922026573755,"3":-0.07463781135112876,"4":-0.0299060229029123,"5":-0.28318332715626227,"6":-0.2576284110219099,"7":0.38203095001547765,"8":0.1390423691127843,"9":-0.07672524563350434,"10":-0.16763346174822036,"11":0.05527678227783451,"12":-0.22465540191677288,"13":0.21277818235540072,"14":0.014190907450570542,"15":-0.07297993002899185,"16":-0.10617236119239655,"17":-0.05993749007907098,"18":0.17283782018605548,"19":-0.0023077191385385064,"20":-0.1828930853931744}},{"sx":1,"sy":1,"depth":21,"w":{"0":0.21257039349301643,"1":-0.10143316938669646,"2":-0.009302775104148824,"3":0.1911108483573885,"4":-0.3022271819090368,"5":-0.006159458082101697,"6":-0.503385247216838,"7":0.5547929119069802,"8":0.03490253947110587,"9":-0.1841732855590726,"10":0.04836979422515204,"11":0.15335912319024098,"12":-0.026320232100389227,"13":0.2811147596513444,"14":0.0661111360196066,"15":0.033310128222578395,"16":-0.039213050019991605,"17":-0.01073036054954173,"18":0.02262265353423197,"19":0.03231665773119767,"20":-0.07551944784258183}},{"sx":1,"sy":1,"depth":21,"w":{"0":-0.15779221114313322,"1":-0.1068502834160523,"2":-0.017644855569557458,"3":-0.5163407327436612,"4":0.6800119912687256,"5":-0.14529866661210888,"6":-0.24625983258769568,"7":0.2642094896466325,"8":-0.09125649572244215,"9":0.00447384747177473,"10":0.023226567489742334,"11":-0.06156680998983408,"12":0.11303455963884691,"13":-0.19551051278683423,"14":-0.1955886625233683,"15":0.37184245164407426,"16":-0.1682771709049916,"17":-0.26054155410737906,"18":0.135917584592148,"19":0.34236532367623906,"20":-0.17051413789141875}},{"sx":1,"sy":1,"depth":21,"w":{"0":-0.12021458218404031,"1":-0.09950520856167054,"2":-0.20432493891353654,"3":-0.3372252283013231,"4":0.26534527861745577,"5":0.0972077941771226,"6":-0.3092388318163678,"7":0.26935080582907567,"8":0.0669410033101803,"9":-0.2894478101437638,"10":-0.17094374597158196,"11":-0.2888674771621302,"12":-0.2116001567115475,"13":0.09794939316902575,"14":0.28017276635520005,"15":-0.2512504064220278,"16":0.17844923330130344,"17":0.012228486245063617,"18":0.15412906569337695,"19":-0.17095772566351486,"20":-0.09309662807183078}},{"sx":1,"sy":1,"depth":21,"w":{"0":-0.38936785748382857,"1":-0.04149433118332275,"2":-0.22203180075844847,"3":0.8488112112714575,"4":-0.6127732570674649,"5":0.001720077470128281,"6":-0.5594373701623544,"7":0.03633837257673993,"8":0.309576926308432,"9":0.25371670939043206,"10":-0.061687844606757025,"11":0.10610605997034228,"12":0.228077615356191,"13":-0.19419704511813915,"14":-0.0041384308418752165,"15":-0.42144360326919944,"16":0.2975639190904362,"17":-0.4189656927266982,"18":0.20997764326392715,"19":-0.09526927412491261,"20":0.20864011216563022}},{"sx":1,"sy":1,"depth":21,"w":{"0":0.6058899412151862,"1":-0.26965019983884125,"2":0.15642357222073344,"3":-0.6918024690697624,"4":-0.7310893126386554,"5":-0.21361019297884243,"6":-0.1749466351151556,"7":-0.13633671403661898,"8":-0.21360447103184496,"9":0.02542133104016888,"10":-0.11108006628385275,"11":0.5806149286720385,"12":-0.2969198273075543,"13":0.07817286345719432,"14":-0.09840951424668941,"15":-0.24057829359184382,"16":-0.226706471196284,"17":0.15400024837588214,"18":0.27651139695843885,"19":0.2514293091911998,"20":-0.11320553647841974}},{"sx":1,"sy":1,"depth":21,"w":{"0":-0.11519923142189217,"1":0.20942746859651667,"2":-0.12524790063258487,"3":-0.2059142912459213,"4":0.3311910603160216,"5":-0.5380348487845086,"6":0.24693175629825206,"7":-0.1112607947845039,"8":0.08800169076828877,"9":0.11028899751314486,"10":0.13887096760049514,"11":0.22344575986501877,"12":0.06331523027783709,"13":-0.16953272941494846,"14":0.28930960590359317,"15":-0.5638565516621014,"16":0.24272344456006212,"17":-0.010240702386708113,"18":-0.40606659786172267,"19":-0.09398813595009649,"20":0.06460703064150383}},{"sx":1,"sy":1,"depth":21,"w":{"0":0.03558979738081021,"1":-0.025667212501109107,"2":-0.14480624490896082,"3":0.05763136977804429,"4":0.25312461145637283,"5":0.22810747126752332,"6":0.2919985201026483,"7":0.15151226214429867,"8":-0.09902421320397994,"9":0.24420818816299067,"10":-0.2672032315740135,"11":0.12709328153858832,"12":0.007978338909131898,"13":0.09144719744226547,"14":0.24344261747667806,"15":0.07017902490916834,"16":-0.06039772777713648,"17":-0.1368394641226079,"18":-0.0660708361846442,"19":-0.3759688326420191,"20":-0.03960980548033773}},{"sx":1,"sy":1,"depth":21,"w":{"0":0.8958877800528054,"1":-0.7359423869897115,"2":0.0022661058845757,"3":0.7082713644752565,"4":0.12159030593275086,"5":-0.15960951218176872,"6":0.48465371660052997,"7":-0.17619258111214778,"8":0.18580771229953136,"9":0.21687874181713382,"10":0.09262003391130097,"11":0.10910402589855596,"12":0.10969613091049131,"13":0.395354008009997,"14":0.06754093586015894,"15":-0.04769978420387764,"16":-0.3185916454078535,"17":-0.27815596915885193,"18":0.10507256556320202,"19":-0.2805274640823667,"20":0.059801723013554554}},{"sx":1,"sy":1,"depth":21,"w":{"0":-0.5314509156566837,"1":0.3880673343730265,"2":0.41028181388139834,"3":1.305765634655067,"4":-0.9320546046475032,"5":0.04546782755268121,"6":1.5462851539786266,"7":0.054225240594786166,"8":0.30816612390801223,"9":0.2792777426655851,"10":-0.2551098943721993,"11":0.18892892956630444,"12":0.24945447534059897,"13":-0.08082266510330895,"14":0.19357362010769508,"15":0.04899233603217023,"16":-0.06007317224031077,"17":-0.009125987924910444,"18":-0.0699699657195639,"19":-0.03217014946494239,"20":-0.028112732792008408}},{"sx":1,"sy":1,"depth":21,"w":{"0":-1.5591737938049246,"1":0.4544806126553739,"2":0.1896998652477694,"3":0.4505884460807285,"4":0.15304716128815515,"5":-0.05288785131990203,"6":0.7046329654703141,"7":-0.28905775946031603,"8":0.042204830953641664,"9":0.1337104675144235,"10":0.10440367036911233,"11":0.3478394281804709,"12":-0.1523922245756233,"13":0.09825927766241833,"14":0.06713944805203534,"15":0.12041600924836993,"16":-0.10216299805713851,"17":-0.2685856911932175,"18":0.14064881726779724,"19":0.050645455922760776,"20":0.06799545648367339}},{"sx":1,"sy":1,"depth":21,"w":{"0":-0.9720827517913747,"1":0.03430321717133849,"2":-0.1546324694355376,"3":0.26879815290766623,"4":0.17778049401768117,"5":0.07481613914937157,"6":-1.8733858984019995,"7":0.6026387779438759,"8":0.5631288921339082,"9":0.04254129213681879,"10":0.093834297224795,"11":0.08348611564856033,"12":0.11791677259307844,"13":-0.14313526927026438,"14":-0.23294498425716703,"15":-0.4834147483278302,"16":-0.012338074188340046,"17":0.22746440708555446,"18":0.012054410748729007,"19":0.2332887468370574,"20":0.06482507679211848}},{"sx":1,"sy":1,"depth":21,"w":{"0":0.19120858936972748,"1":-0.051780027713251485,"2":-0.09301838613821613,"3":0.0071861888079860275,"4":-0.3874584226933075,"5":-0.07990603195040373,"6":0.04848632522463,"7":-0.3392384607990663,"8":-0.3366451394790306,"9":0.004784154506321187,"10":0.10902729308134242,"11":0.05952121471668678,"12":-0.11596480316830701,"13":-0.16652992448673168,"14":-0.07806463837140795,"15":0.2002736945108991,"16":0.15925045305417604,"17":0.13313038734645896,"18":-0.07044979130224636,"19":-0.2281449885609631,"20":0.21141271843819953}},{"sx":1,"sy":1,"depth":21,"w":{"0":-0.018678828538002883,"1":0.13550570936300912,"2":-0.05816528841938773,"3":-0.15125662578288646,"4":-0.003847985113633938,"5":0.12042020691879346,"6":-0.37864929186630847,"7":0.31660736215757634,"8":-0.16130777564143317,"9":-0.3370699100118414,"10":0.03269383912667694,"11":-0.28683050134936666,"12":-0.5086418077050252,"13":0.4050070768168818,"14":-0.1960485217153772,"15":0.29896945798594665,"16":-0.3353941358311533,"17":-0.5319077997702985,"18":0.026780475023975202,"19":0.23640000875502556,"20":0.20180042109416244}},{"sx":1,"sy":1,"depth":21,"w":{"0":0.25574329419037295,"1":-0.4688751298459152,"2":-0.17893628470508155,"3":-0.10538230646824043,"4":-0.08448701920825223,"5":-0.17563878405467795,"6":0.3526541913251119,"7":-0.18254071907804234,"8":0.01406339192159675,"9":0.303014068508678,"10":-0.25016638074565595,"11":0.2501745675595969,"12":0.03626259732169269,"13":0.33305603929314054,"14":0.30375225585010807,"15":0.3865599758252607,"16":0.14615484741034052,"17":-0.03204852516968571,"18":-0.05592893498314455,"19":0.042121951731666364,"20":-0.34613066990696073}},{"sx":1,"sy":1,"depth":21,"w":{"0":-0.3145325115150091,"1":0.07012829637713168,"2":0.15626581281611043,"3":1.2620511216486716,"4":-0.45959391546347594,"5":-0.1098694068077918,"6":-1.1250662809197463,"7":-0.1534940850502083,"8":0.42078346510997056,"9":0.049710746082637265,"10":-0.06130956810104709,"11":0.07508382040525238,"12":0.2378162055637422,"13":-0.1360499458636337,"14":-0.005308241416384184,"15":0.3264137940995801,"16":-0.019029481548830773,"17":0.31244538200373,"18":0.0707317776288098,"19":0.11171191116924309,"20":0.08506228156431553}},{"sx":1,"sy":1,"depth":21,"w":{"0":0.5245130730010773,"1":-0.1851703351880216,"2":0.1693276288345358,"3":-0.3248371655908298,"4":0.1257033097623485,"5":-0.02948587626540212,"6":2.0374923687023676,"7":-0.19927522964914965,"8":-0.4247871223051344,"9":-0.2778907278493513,"10":0.19800188883063674,"11":0.009573264693504276,"12":0.12508056226034597,"13":-0.4321944404906975,"14":-0.22313478093815883,"15":-0.13820921539619785,"16":-0.24920609134242186,"17":-0.047419670241033524,"18":0.3757478211810564,"19":0.3567355798366711,"20":0.20919560696186312}},{"sx":1,"sy":1,"depth":21,"w":{"0":0.27472142447674086,"1":-0.39752523731929895,"2":0.02496404244138261,"3":0.3096577308007121,"4":-0.30023332600267405,"5":-0.03281061444091564,"6":-0.8812434201505576,"7":0.11594583769847101,"8":-0.17949118645307804,"9":-0.038309439064608874,"10":0.23340538916659562,"11":-0.10433833503947094,"12":-0.38229154296804063,"13":-0.05275376566930554,"14":-0.052141499944927526,"15":-0.021049608153594357,"16":-0.01602029975302992,"17":0.3115783733152151,"18":0.04185513186443747,"19":0.19060840912063176,"20":0.10029280721469241}},{"sx":1,"sy":1,"depth":21,"w":{"0":0.2438264771696121,"1":-0.6105316581101086,"2":-0.3889028040001109,"3":-0.1101470526084576,"4":0.438655005751228,"5":-0.0552891981317912,"6":-0.42655264175250096,"7":0.49669982285086783,"8":0.000891320516046348,"9":0.18132414568990238,"10":-0.35969196644490364,"11":-0.18789633821059243,"12":-0.3837124945257779,"13":0.06209132215815674,"14":-0.2252250772622641,"15":-0.10351294469704418,"16":0.004225028652198028,"17":0.2833507228080261,"18":0.2713453491996152,"19":-0.5297975133158472,"20":0.17474316186542413}},{"sx":1,"sy":1,"depth":21,"w":{"0":0.025329521595648163,"1":-0.1850865180417459,"2":0.39941457914252215,"3":0.04706308870823403,"4":-0.15766684396942815,"5":0.14514666193618586,"6":0.28019651239084153,"7":-0.36703135146493154,"8":0.23913579514684669,"9":-0.2317747139230733,"10":0.3058097721852103,"11":-0.04400957341530225,"12":-0.25613628160574153,"13":0.25222924953286247,"14":-0.04815443517378392,"15":-0.3910304494670946,"16":0.006841552899015098,"17":0.11825515909295023,"18":-0.164696943793998,"19":-0.1920645378210099,"20":0.35105601498815486}},{"sx":1,"sy":1,"depth":21,"w":{"0":0.2739504676815625,"1":-0.10737582442976971,"2":-0.563118175881986,"3":0.6296994171872184,"4":0.09661252850309428,"5":0.20149614082311185,"6":0.6635474284094093,"7":-0.22335452081500193,"8":0.09188290112721498,"9":0.2098576916733662,"10":0.253581310893526,"11":0.10240760237738834,"12":-0.20581779113045198,"13":0.5393266388623962,"14":0.1626132930519025,"15":0.25791135172569823,"16":0.17347262460267726,"17":-0.16785061595233047,"18":0.038467237772368164,"19":0.03884039946425759,"20":-0.4027019252901791}},{"sx":1,"sy":1,"depth":21,"w":{"0":-0.5763666447061581,"1":0.31003233216141984,"2":0.033992626677217856,"3":-1.0867477007303197,"4":0.68695104652492,"5":-0.1102100024194808,"6":0.18099779145839803,"7":-0.210917124627641,"8":-0.2676951488804524,"9":0.18742222858314367,"10":0.008082768342193515,"11":0.14827365905931467,"12":-0.19915909669479662,"13":0.199839049317699,"14":0.02162752307522116,"15":0.21483168638416783,"16":0.05591756122750562,"17":-0.23653387611234833,"18":0.13565783030716183,"19":0.16705575013522966,"20":-0.3307843074564145}},{"sx":1,"sy":1,"depth":21,"w":{"0":-0.143475687982633,"1":0.340996140464004,"2":0.23693396197857838,"3":0.5161213742824373,"4":-0.2870263785082097,"5":-0.22754296956507747,"6":0.33505060635519524,"7":-0.3086059429430846,"8":-0.2364230218580602,"9":0.22308123714111025,"10":-0.2415513749443258,"11":-0.04399202241973663,"12":-0.17940971503561276,"13":-0.007990622500828019,"14":0.2793863313289936,"15":0.06910891293241385,"16":-0.151847058364442,"17":0.3254584157176199,"18":-0.1496460357490396,"19":0.14653491361394674,"20":0.061053088042069395}},{"sx":1,"sy":1,"depth":21,"w":{"0":-0.026359856193935743,"1":-0.023469103805235855,"2":-0.2806592241977751,"3":0.045887901177723095,"4":0.2993801403898512,"5":0.24346993726151825,"6":-0.4591890855560593,"7":-0.3722586837335417,"8":-0.351316570211782,"9":0.16156224866791097,"10":0.17399837105329477,"11":-0.3255249695131804,"12":-0.09476689760113272,"13":0.2693203962417623,"14":-0.040760155486744984,"15":-0.168145682731552,"16":0.09840839745169043,"17":0.12482568914792715,"18":-0.24437899377117844,"19":-0.2177381961330711,"20":-0.1531790728828156}},{"sx":1,"sy":1,"depth":21,"w":{"0":0.13276983605298157,"1":-0.00023763002585478556,"2":0.2046135255379776,"3":-0.0987690986285429,"4":0.1801061532865112,"5":0.18881940200913275,"6":0.02384749122161583,"7":0.22090585201764315,"8":-0.1705556541878678,"9":0.09200842556326598,"10":-0.10886099083368928,"11":0.4839219352662485,"12":-0.1091320688741175,"13":-0.08785608310569286,"14":-0.2824509777649195,"15":0.07189896252415601,"16":0.40191217418946823,"17":-0.3455172441040382,"18":-0.1566469036891577,"19":-0.12016038255438767,"20":-0.2896506805627946}},{"sx":1,"sy":1,"depth":21,"w":{"0":1.437895646706952,"1":0.27347475040142544,"2":0.1188809062935809,"3":0.8086723521545314,"4":-0.4264829277773347,"5":-0.1817693651581209,"6":-0.2571384235656541,"7":0.45154421644398923,"8":-0.05750126745274362,"9":0.26854202238147806,"10":-0.026747446825932178,"11":-0.1540752146651642,"12":-0.08532542146882138,"13":-0.17302121485993455,"14":0.13451105975188338,"15":0.34815877507366727,"16":0.1019669873320317,"17":0.07742350148922729,"18":0.006857315750205638,"19":-0.03275014155124721,"20":-0.03405859820920237}},{"sx":1,"sy":1,"depth":21,"w":{"0":-0.7807700337222946,"1":0.26618532999346917,"2":-0.14924109726600004,"3":0.1115786910675397,"4":-0.027968430513470827,"5":-0.09432527402872501,"6":-0.03214861620822385,"7":0.1277248335632301,"8":0.29332266480888763,"9":-0.01275351801142587,"10":0.09430308180312832,"11":-0.020544878539257336,"12":-0.4887364697392071,"13":0.032336202362593776,"14":0.10780005497168284,"15":0.016456376463577334,"16":-0.17611097974462261,"17":0.0581932730022391,"18":-0.21294499835137606,"19":-0.06303430202361018,"20":-0.283085791932586}},{"sx":1,"sy":1,"depth":21,"w":{"0":0.14856386338103048,"1":-0.7577078095836927,"2":0.020832571056353895,"3":-0.17460718939901218,"4":-0.7043114828481972,"5":0.17899897406473259,"6":0.4419466904713954,"7":-0.04912257420209455,"8":0.020195887387718447,"9":0.2460110545950888,"10":0.10522249879336429,"11":0.1389270608044186,"12":-0.007434510568005864,"13":0.06883468413257608,"14":0.18826752336126754,"15":0.4118104633851434,"16":-0.03794207321166472,"17":-0.0350426824959185,"18":0.20374681382492013,"19":0.11792012803796338,"20":0.045482233937235224}},{"sx":1,"sy":1,"depth":21,"w":{"0":0.016772605024805976,"1":-0.27113497052249086,"2":-0.3014514617760128,"3":0.12863661691124412,"4":-0.2745427277377998,"5":0.3001294842285599,"6":-0.016602663301816135,"7":-0.018311996081156107,"8":0.12004409825771441,"9":0.005933399554991559,"10":-0.23038844164780647,"11":0.23114241867866359,"12":-0.04841364539570542,"13":0.2227254280336165,"14":0.10935677001098457,"15":-0.11411437141318595,"16":-0.1355256242800879,"17":-0.023832069499731327,"18":-0.34295871658474975,"19":-0.43250040247810184,"20":0.192060717889145}},{"sx":1,"sy":1,"depth":21,"w":{"0":0.23524961567502345,"1":0.22098019470820154,"2":0.07127069523154118,"3":0.3064225560528753,"4":0.22079528060774475,"5":-0.1212930627627565,"6":0.12626544759757521,"7":0.17087978624659128,"8":-0.04374156984151445,"9":0.16203083969582044,"10":0.14354665435572805,"11":0.03414645641967824,"12":0.05626876911259906,"13":-0.2654929771386601,"14":-0.4421567896165437,"15":-0.32932851819834325,"16":-0.16157935416761512,"17":-0.18129578155606138,"18":0.031760478736462816,"19":-0.18808736677083643,"20":-0.09652250265612919}},{"sx":1,"sy":1,"depth":21,"w":{"0":0.026716162144787663,"1":-0.04853155112839254,"2":-0.05557357240882419,"3":0.48651604885536537,"4":-0.0849201543311325,"5":-0.1421242539181124,"6":-0.5389267241793926,"7":0.28605789618798905,"8":-0.1192528531782099,"9":0.2928100638368139,"10":-0.02433122409294493,"11":-0.10813255318872352,"12":0.08884117196424186,"13":0.011578205540493236,"14":-0.24629449961912778,"15":0.16356363973698007,"16":0.1621113389862091,"17":-0.22966996039838555,"18":-0.1436218312941716,"19":-0.145888483172564,"20":0.06998228558275037}},{"sx":1,"sy":1,"depth":21,"w":{"0":0.7548604995216806,"1":-0.1742799682785884,"2":-0.055904805316429704,"3":-0.8835146837162381,"4":0.3518081794862158,"5":-0.09709455241772286,"6":-0.06927644223965886,"7":0.023626188700256796,"8":0.06755934353659854,"9":0.34754134513484136,"10":0.403349791092629,"11":-0.02572902039652479,"12":-0.19939994944897277,"13":-0.3700071043193924,"14":0.008680056167009896,"15":-0.059468314360239825,"16":-0.06113204329166363,"17":-0.04555453520761807,"18":-0.11537311084590515,"19":0.08573874287992866,"20":0.15787367548381545}},{"sx":1,"sy":1,"depth":21,"w":{"0":0.2886840506066213,"1":0.17650027530132154,"2":0.09600863082068149,"3":-1.3772735490788894,"4":-0.09105278954421939,"5":-0.026185536793049753,"6":-0.6728561878801238,"7":-0.2138125806308008,"8":-0.2872873115013841,"9":-0.19572702666232333,"10":0.248275392239941,"11":0.21729820993005147,"12":0.6304706426483276,"13":0.12146231926736459,"14":0.47117167943810206,"15":0.22698659443559266,"16":0.09771227870981133,"17":0.12181943907247873,"18":0.1508887893296718,"19":-0.07783666437300071,"20":0.08454070062706755}},{"sx":1,"sy":1,"depth":21,"w":{"0":0.06635168944959542,"1":0.551124287612326,"2":-0.20214789209353218,"3":0.1422961549627884,"4":0.027240831338967885,"5":0.48629881030976607,"6":-0.9048347975347317,"7":-0.28329664585246384,"8":-0.3105164123920352,"9":0.12865159614324387,"10":0.0176526063319426,"11":0.09729376368746882,"12":-0.2542526928940756,"13":0.39842130411265764,"14":0.216903275740814,"15":0.06853941631057531,"16":-0.1036489587893374,"17":-0.08904468862697043,"18":0.34204164779584234,"19":0.13393507322661535,"20":0.10050875590195278}},{"sx":1,"sy":1,"depth":21,"w":{"0":-0.08061046475899371,"1":-0.09099757418008445,"2":0.24424359356077027,"3":1.0201170324753466,"4":-0.4119437626062072,"5":0.2354856381550536,"6":0.005927504455597384,"7":-0.272283883982133,"8":-0.20232447628222805,"9":-0.22022094617187196,"10":0.0028539275186760514,"11":-0.04361936294158961,"12":-0.1541201791966633,"13":-0.16163076241858815,"14":0.034472357546498064,"15":0.05805999060136182,"16":-0.23304662671486437,"17":0.2544701031647226,"18":0.1336576184973862,"19":0.3145406411837269,"20":-0.354485429425996}},{"sx":1,"sy":1,"depth":21,"w":{"0":1.302870147943182,"1":-0.8138150964188812,"2":0.12019350737225196,"3":0.6394618558924824,"4":0.27770190851482185,"5":0.14826644940007552,"6":0.09207218305961119,"7":-0.7167555232601418,"8":-0.12126534059868763,"9":0.05812301152766398,"10":-0.11373847750568705,"11":-0.13497086188224483,"12":0.09379011385222542,"13":-0.16810632839015766,"14":0.0011674603197975638,"15":-0.30082812271934634,"16":0.447380123458537,"17":0.09607735208356491,"18":0.06392981761418062,"19":0.11406557615486099,"20":0.09246035169204923}},{"sx":1,"sy":1,"depth":21,"w":{"0":-0.10176024961422735,"1":0.5587270070358237,"2":-0.09575652036805901,"3":-0.6475231939933024,"4":-0.24909110186466868,"5":0.09889329673760053,"6":-0.08623764199434751,"7":-0.014702587832857128,"8":0.12242560130896714,"9":0.04198284586161302,"10":0.07361742792758785,"11":0.30200244061563747,"12":0.35838361384484146,"13":-0.24693635369745323,"14":0.14105915230572424,"15":-0.09628540196905928,"16":0.11656867162147302,"17":0.06292376072567417,"18":-0.5540512415239371,"19":0.15351462913018382,"20":-0.2941507677483275}}],"biases":{"sx":1,"sy":1,"depth":50,"w":{"0":0.10593931404832639,"1":0.1,"2":0.1,"3":0.11257202174316627,"4":0.05603571233828744,"5":0.1075050872920386,"6":0.10509702801500515,"7":0.09680840909086251,"8":0.11054345223201037,"9":0.10805932172303433,"10":0.1,"11":0.10989286999140617,"12":0.1271944576779382,"13":0.0920973270372592,"14":0.10880185616945506,"15":0.08181996538758723,"16":0.10694623294289703,"17":0.11361558401619903,"18":0.12120687092556034,"19":0.09070658111475714,"20":0.08645872752900646,"21":0.1060346256876697,"22":0.11652911421923594,"23":0.08354701905195404,"24":0.08889641068632734,"25":0.10401495018500782,"26":0.11188263097166322,"27":0.1083473519945335,"28":0.11182896661602545,"29":0.09288932651591622,"30":0.098812391186518,"31":0.10209452638728793,"32":0.09050295029686489,"33":0.08349203901657644,"34":0.08828717944716194,"35":0.07623084152042073,"36":0.1,"37":0.09433779201868513,"38":0.11016330499372952,"39":0.10280220315314216,"40":0.10766066350217363,"41":0.09847937762366069,"42":0.09418376011468647,"43":0.10277153106813887,"44":0.10721182470795394,"45":0.10827275338879133,"46":0.07309660867303677,"47":0.1029222064179416,"48":0.14411126301064725,"49":0.08457059471514021}}},{"out_depth":50,"out_sx":1,"out_sy":1,"layer_type":"relu"},{"out_depth":50,"out_sx":1,"out_sy":1,"layer_type":"fc","num_inputs":50,"l1_decay_mul":0,"l2_decay_mul":1,"filters":[{"sx":1,"sy":1,"depth":50,"w":{"0":0.17937196910323283,"1":0.012029055488470851,"2":-0.097809112130478,"3":-0.03784250998065972,"4":-0.20080979254235581,"5":0.09574477599566313,"6":-0.10380469544453548,"7":-0.012173434530891415,"8":0.06315292589603219,"9":-0.24384413611443412,"10":-0.04101793946108224,"11":-0.07131229036023377,"12":0.02947793124220777,"13":-0.09027354791757763,"14":0.03405402322013589,"15":0.09169610591206523,"16":0.34107264940412707,"17":0.09342806028359824,"18":-0.1463386540850316,"19":-0.027690640442572124,"20":0.00023965552506553743,"21":-0.18329028829538946,"22":0.19302717170452768,"23":-0.050810568965206866,"24":0.011331707399729815,"25":0.06939693400621029,"26":0.016563833230674122,"27":-0.005173613399670349,"28":-0.14864658753335167,"29":0.01283259973241797,"30":0.006730516039900953,"31":-0.013670344801449356,"32":-0.20960238834122907,"33":-0.19487308552542695,"34":0.12091017885903389,"35":-0.051910290118697376,"36":-0.1604282063553965,"37":0.12071214988142441,"38":0.1103932630929842,"39":0.20354530305555707,"40":-0.12328032443041398,"41":-0.23244665729699834,"42":-0.025300526480541128,"43":-0.09612363122075544,"44":0.08396199948265809,"45":-0.056004310699391886,"46":0.1347534730027287,"47":-0.1996608171646908,"48":0.05481536747261143,"49":-0.10272979116660089}},{"sx":1,"sy":1,"depth":50,"w":{"0":-0.015299637577224731,"1":0.07902541810106338,"2":-0.22665534467747547,"3":0.00814131457554567,"4":-0.11146445641936051,"5":-0.05537357268939795,"6":0.08032697683606832,"7":-0.06848973226446108,"8":0.14572363181579262,"9":0.07919545735515755,"10":-0.07184955661843273,"11":-0.16857422332533017,"12":0.009006085130282004,"13":-0.41396937413261553,"14":-0.08506167990807637,"15":-0.0324996720852002,"16":-0.01836234916822013,"17":0.018900854195996266,"18":-0.11603319090022474,"19":0.10773295628425679,"20":0.013912644625286045,"21":-0.09809834848417169,"22":-0.1269602979525234,"23":-0.3177156906185339,"24":0.039526512531292614,"25":-0.321454151810702,"26":-0.09780779652241403,"27":0.1921853231470569,"28":0.053360521032781584,"29":-0.1096729998171816,"30":-0.08248129013865951,"31":0.049463024643856324,"32":0.2014791141267826,"33":0.038313410354480826,"34":-0.08560278729750201,"35":-0.11268949187927906,"36":-0.03436701698548347,"37":0.037321048873730424,"38":0.21413631230885163,"39":-0.11979345186464954,"40":0.09510598339094131,"41":0.15835735416508476,"42":0.2836707471826028,"43":0.07716183403085339,"44":-0.03653743491614598,"45":-0.1669847392757303,"46":-0.07165814909550533,"47":0.03515834738045194,"48":0.060684685706414804,"49":-0.08565462095183081}},{"sx":1,"sy":1,"depth":50,"w":{"0":-0.0035501050749216115,"1":0.10225505799634749,"2":0.13908059446665744,"3":0.14704839194304334,"4":0.12250393133938835,"5":-0.2628677972688249,"6":0.16418068855895923,"7":0.04692505032115688,"8":0.06837226574925477,"9":0.1722930941270212,"10":0.04782503257850779,"11":-0.05979126064819161,"12":0.028754039847549148,"13":0.3415390790700697,"14":0.16575470875988904,"15":-0.06915481130984277,"16":-0.11051587235638503,"17":-0.1287205321554171,"18":-0.16320533960236658,"19":-0.03809705728308095,"20":0.2357668129081003,"21":0.049182752279132255,"22":-0.25521130181772694,"23":0.010387818614504944,"24":-0.20697393242978931,"25":-0.047291212135840296,"26":-0.020703480574105853,"27":0.12388556615202571,"28":0.039989685088912943,"29":0.1648005622282671,"30":-0.15495851845986372,"31":-0.02105377915456224,"32":0.06363663758071672,"33":-0.019018093387896704,"34":0.24964576532422453,"35":-0.1851192733279821,"36":0.10209867746862968,"37":0.012015255252708967,"38":0.11452102911209601,"39":-0.016529597816160795,"40":-0.2769316742608132,"41":-0.15555978685324187,"42":0.3496282586363114,"43":-0.17354617674028633,"44":0.18186868565696662,"45":-0.00043731509344407005,"46":0.15214869911327839,"47":0.2802848955066469,"48":0.04934656134713464,"49":0.060963873009524085}},{"sx":1,"sy":1,"depth":50,"w":{"0":0.002653382502048113,"1":0.015573455019932632,"2":-0.2899994773315016,"3":-0.11763224304607076,"4":-0.16872092192015373,"5":0.034709887689221154,"6":-0.3279197775272316,"7":-0.0069839788816591164,"8":-0.1810726249270292,"9":-0.12454532268126164,"10":0.024903771335550166,"11":0.06567138207153633,"12":-0.06039155393100211,"13":-0.2138169293024222,"14":0.004258417788680135,"15":0.07094731844695605,"16":-0.04448405211007148,"17":0.04351642352377056,"18":-0.0952710604352588,"19":0.025584368612646857,"20":0.11405280991285681,"21":0.2525228906178893,"22":0.1549915741058318,"23":-0.015223457297108455,"24":-0.017903815448343807,"25":0.07958813880142108,"26":0.2062406611338617,"27":0.19057299080023526,"28":0.10388820710773274,"29":0.32554569708926107,"30":-0.08489015700401276,"31":0.13363629814588268,"32":-0.04197181973424413,"33":-0.0685338621614409,"34":0.24719119038204598,"35":0.16685899446607144,"36":0.19279491746567765,"37":0.23254423735884494,"38":0.09100416290415343,"39":-0.05405532143140492,"40":0.18681589977122995,"41":-0.1360312990119236,"42":0.2262900113118075,"43":-0.12056345802060935,"44":-0.055059484607047585,"45":0.09148918506923008,"46":0.11921778048638954,"47":-0.1090496570278368,"48":-0.07528926515341626,"49":0.29611640766376585}},{"sx":1,"sy":1,"depth":50,"w":{"0":0.09590439776834132,"1":-0.033650088618031634,"2":-0.10814123368782774,"3":-0.06484427739739076,"4":0.019383371930204937,"5":0.06018257879465377,"6":0.09959456280629646,"7":-0.22518899597882144,"8":0.15605902638680946,"9":-0.07358954163976834,"10":-0.004776025994330935,"11":-0.1394190947808638,"12":0.2690728518609226,"13":-0.1184106481632841,"14":0.24684789277619756,"15":0.1192693626225356,"16":0.0058993682538367185,"17":-0.21138039963806177,"18":0.03552590461619836,"19":0.0429933848656278,"20":0.04092787811877837,"21":0.10211030404395068,"22":0.19567153056030637,"23":0.08955343468376693,"24":-0.1744287422713964,"25":-0.1347151975516417,"26":0.18097299931481123,"27":0.1392430403923957,"28":0.16300446958691953,"29":-0.07288599052825641,"30":-0.08676158027091675,"31":0.3942035338894845,"32":0.09528706210691701,"33":-0.0014762652117597406,"34":0.024897190008434437,"35":-0.20904957077804961,"36":-0.06970673715449498,"37":0.14019159400388675,"38":-0.07682691301980088,"39":0.2125299909024384,"40":-0.19350977632367958,"41":0.18915167226770882,"42":-0.023294255988644354,"43":0.06412960190607649,"44":0.0037672279088045795,"45":-0.058111952231826795,"46":-0.031058019307299845,"47":0.1454808524302561,"48":-0.04412278255331749,"49":0.12588829041658117}},{"sx":1,"sy":1,"depth":50,"w":{"0":-0.0693761858193935,"1":-0.14599085106825838,"2":-0.059744726371637046,"3":0.14593492808134398,"4":-0.0055964263338532045,"5":-0.060553031304958996,"6":-0.14037354042966846,"7":0.02006547563040585,"8":-0.18011639249924088,"9":-0.05584594656172529,"10":-0.11048537906683135,"11":0.21604826756951515,"12":-0.15056641475525562,"13":-0.26282564358061666,"14":0.0903366819447444,"15":0.0007631517296874388,"16":-0.21321149326096722,"17":0.15019542594482763,"18":0.05120118066526195,"19":0.1791073356682476,"20":0.028806796460107288,"21":0.08827327695397294,"22":0.22801656015368055,"23":0.0876235485834886,"24":-0.058742896367482485,"25":0.18235986790800215,"26":-0.2870779267017658,"27":0.13045127785981603,"28":-0.01618046111448178,"29":-0.04183139977645464,"30":-0.07452007149572493,"31":0.05160393281002304,"32":0.04313603750952441,"33":0.0776932758742879,"34":-0.04959388189291027,"35":-0.1359473547376967,"36":0.12686945467968583,"37":-0.07480192977089793,"38":0.16945523465929,"39":0.057863384889441837,"40":-0.27198973526959425,"41":0.006875831561715503,"42":0.007270249564817315,"43":0.05493538898497543,"44":-0.059568385167742294,"45":0.0011758497134717965,"46":0.029600884016754075,"47":-0.018103865141159945,"48":-0.039983811303399557,"49":-0.0784304840395711}},{"sx":1,"sy":1,"depth":50,"w":{"0":-0.19396961665625798,"1":-0.07914879675882383,"2":0.08152406263174025,"3":0.13604779414086582,"4":-0.0968664058486745,"5":-0.22069147875616923,"6":-0.11585560077063221,"7":0.09794221653381582,"8":0.04772223468651184,"9":0.04023765776334137,"10":-0.03240184363687393,"11":0.007900759952952472,"12":-0.33609434867595595,"13":-0.1894466635141642,"14":0.10089335201163459,"15":0.023611550156877822,"16":-0.13149471983747224,"17":0.16608939972705528,"18":0.22064286580287443,"19":-0.022531643295788377,"20":-0.005124224115453547,"21":0.19738585327272132,"22":0.26812403368472365,"23":0.0318381462322137,"24":-0.3513159169053138,"25":0.08436155747697234,"26":-0.013726647994958216,"27":0.058215283444761456,"28":0.4733835417238809,"29":0.20451013431833517,"30":-0.17279177297562787,"31":0.13399873144230542,"32":0.14960328554664815,"33":-0.11307766895505046,"34":-0.23654431550528643,"35":0.22429486152409864,"36":0.011581913032699825,"37":0.06133549941267138,"38":0.008983325801248637,"39":0.13945216156259724,"40":0.21401819983031456,"41":0.13540194615871276,"42":0.21195162037175402,"43":0.05837511882530376,"44":-0.055001598504534614,"45":0.16809545710050056,"46":0.04305193041505332,"47":0.3358141739766177,"48":0.1955501544348513,"49":0.20503237723296144}},{"sx":1,"sy":1,"depth":50,"w":{"0":-0.1067581705266383,"1":0.052711300296668054,"2":0.13672515082042647,"3":0.15318392114206666,"4":0.06355373314681143,"5":-0.044767999935541,"6":-0.0210615937838704,"7":0.14374821370613808,"8":0.045140917164663424,"9":0.1105122659740711,"10":-0.027549929777031534,"11":-0.12310090550851294,"12":-0.12764145436749286,"13":0.11884510050613663,"14":-0.06357657225664198,"15":0.04722829009523248,"16":0.06912192112985406,"17":0.22111852393876277,"18":0.16577679229707984,"19":-0.09320787184694083,"20":0.04968254763675383,"21":-0.031188957825687952,"22":0.18562794928322884,"23":-0.1293582873212302,"24":-0.17199745825895768,"25":0.3412950031772159,"26":-0.26858930328297737,"27":-0.044515642833557904,"28":0.11419622717883156,"29":0.08788708759353973,"30":-0.03591824928195208,"31":-0.24181234010408628,"32":-0.01018905981168403,"33":0.21712696314436727,"34":-0.09927693995958975,"35":0.041437769790334526,"36":0.02536055189212684,"37":0.20096865949896417,"38":0.17496090126264272,"39":0.16289686580890292,"40":0.26889918631037324,"41":-0.14075541773215244,"42":0.010374354927068952,"43":-0.24760329117434388,"44":0.035198513362660444,"45":0.15343426407953534,"46":-0.034436573712012614,"47":0.052781981494410886,"48":-0.10036902044738619,"49":0.2204200681331543}},{"sx":1,"sy":1,"depth":50,"w":{"0":-0.021556500389129804,"1":-0.164444101924662,"2":-0.30854635085336996,"3":-0.008275726109960697,"4":0.31145093468202933,"5":0.11831923254649161,"6":0.07184109105458066,"7":-0.19947940560929922,"8":0.0067193520279818526,"9":0.11280788645573142,"10":0.18848776021091218,"11":0.037166184692818495,"12":0.01634650617362953,"13":-0.026369970526259737,"14":-0.16665805210128073,"15":-0.022752056262928935,"16":0.028280566113492746,"17":0.020737979293664426,"18":-0.061663049678780904,"19":0.14139912960030016,"20":-0.06269797743783632,"21":0.14951972521391843,"22":-0.059238060389714436,"23":-0.006254583079579052,"24":-0.2175752217334354,"25":0.0340092147604196,"26":-0.02398951786018825,"27":-0.12386166894698775,"28":-0.07008024194096082,"29":-0.09824216088231584,"30":-0.17045298365409056,"31":-0.18987843585437147,"32":-0.07917054655398367,"33":-0.04251902221114022,"34":0.151367918077394,"35":-0.17757641633927007,"36":-0.08820740042151788,"37":-0.09818139157264652,"38":-0.10917373881403063,"39":0.11915591213481698,"40":0.11349144058013094,"41":0.01728552597947373,"42":-0.07587946415858964,"43":0.040525597136466654,"44":0.10224507387348482,"45":-0.018951653066589216,"46":0.15520758863158202,"47":0.03555236043796073,"48":-0.22231412581202026,"49":0.0756891832637814}},{"sx":1,"sy":1,"depth":50,"w":{"0":0.08369553960232992,"1":0.08077766679752317,"2":-0.23963453577642338,"3":0.21675444824968973,"4":-0.15402133998752396,"5":-0.16190286476060728,"6":0.07130347726410216,"7":0.006397886488479869,"8":0.320705447655227,"9":-0.06436008197909575,"10":0.06858855585983642,"11":-0.14663149407197304,"12":-0.10748059126623725,"13":-0.03343168987248038,"14":0.04293209520422209,"15":-0.04839647586449951,"16":0.08827446171952515,"17":-0.2653000858641892,"18":0.25959960611524835,"19":0.03976151511942708,"20":0.07637855731022679,"21":-0.005826995233727068,"22":0.43421250177333914,"23":-0.20302199541382254,"24":-0.09374531772755926,"25":0.17786469440353453,"26":-0.05619712107138894,"27":0.2409784706512049,"28":0.0026985652425421005,"29":-0.38379693063072945,"30":0.012330347313246406,"31":0.20628520463174793,"32":0.000246177667121791,"33":-0.01929602171475965,"34":-0.013554009737304853,"35":0.18802303695263545,"36":0.14553589405384124,"37":-0.08988970312785141,"38":-0.10124614273185527,"39":-0.2486528124440057,"40":0.12776691677199792,"41":-0.1320117168110935,"42":-0.13201266062778375,"43":0.054976307998730975,"44":0.16418262057746208,"45":-0.2565920751324564,"46":0.07678625605516268,"47":0.27411937094295225,"48":0.18742322036980275,"49":0.061451933217920855}},{"sx":1,"sy":1,"depth":50,"w":{"0":0.3143482150981498,"1":0.26051499865376637,"2":-0.1349641214768728,"3":-0.01054782519951933,"4":0.08582281330371662,"5":-0.20211365406641615,"6":0.14919317201936577,"7":0.17427713088433827,"8":-0.07204972724170476,"9":-0.08456962155902463,"10":-0.105642527301225,"11":-0.08267570672775314,"12":0.1573926275071079,"13":-0.022725296639370625,"14":0.0946930352714039,"15":-0.07236402080544034,"16":0.12762724022799665,"17":0.27804779820938935,"18":0.07472152741862786,"19":-0.03269538577993551,"20":-0.16349702432098845,"21":0.07656092239812654,"22":-0.06552703911225814,"23":-0.06649139745645956,"24":0.38392491982066795,"25":-0.14906588277032218,"26":0.045966804166513636,"27":0.014990972143930017,"28":0.11179691460692262,"29":-0.15076096412455411,"30":-0.006884669775091737,"31":0.12081848518478237,"32":-0.2819644811329708,"33":0.061575456330395476,"34":-0.05450892272549428,"35":0.10274180120027614,"36":0.08433219964453474,"37":-0.09959024962778412,"38":0.019542325550725284,"39":-0.32775896611508126,"40":0.0917246142628062,"41":-0.19124040440749282,"42":0.13591057306451917,"43":0.06594269950010019,"44":0.07556228128895377,"45":-0.06804428305927004,"46":-0.0334934949593212,"47":0.07894485235844019,"48":-0.021071102326213998,"49":-0.07079471084950967}},{"sx":1,"sy":1,"depth":50,"w":{"0":0.0736305785568529,"1":-0.002474067322993271,"2":-0.11151593582742612,"3":0.010250352970280055,"4":-0.07160802769100452,"5":-0.16757357762896086,"6":-0.09112016269411213,"7":0.22102846180851207,"8":0.13872068299078075,"9":0.09196503822389746,"10":0.01680901209592145,"11":-0.10790402277335297,"12":-0.027594250650874765,"13":-0.17222068884446645,"14":0.15963590643117834,"15":-0.08521759726583758,"16":-0.1903942785889206,"17":0.12783141941440435,"18":0.17480997507879972,"19":0.1419026533236114,"20":-0.14003319496132788,"21":-0.018631879744905423,"22":0.21585589895762547,"23":-0.23105426477189217,"24":0.17268931484719344,"25":0.03717079871349087,"26":0.013343120590223238,"27":0.0466949002949522,"28":-0.01593086176263181,"29":-0.14738756432947325,"30":0.3218691806712336,"31":-0.3094334292736099,"32":0.1402693469924295,"33":-0.02179498486915606,"34":-0.08390021899655195,"35":0.024713036077528967,"36":-0.20509681136228813,"37":-0.061210354479233606,"38":0.1729207306723695,"39":-0.19193134570326706,"40":0.14930849983088357,"41":0.31953878356041693,"42":0.07108862263419381,"43":-0.14294782360466882,"44":-0.13279519413887486,"45":-0.2585289201745545,"46":0.0326849189713732,"47":0.07112556196889389,"48":0.04762616766318192,"49":-0.16036354978958486}},{"sx":1,"sy":1,"depth":50,"w":{"0":-0.17867520159711844,"1":-0.008034867248276666,"2":-0.04732597592752975,"3":-0.18108626436878267,"4":0.18172983673113152,"5":-0.15101450599392172,"6":0.10042831478664684,"7":-0.12913461980640242,"8":0.022568844269191337,"9":-0.017603787808661123,"10":-0.3739122188954948,"11":0.16319907770629308,"12":0.13903459957785455,"13":-0.011944210986128353,"14":-0.2101330358603885,"15":0.20272410236635774,"16":0.08399098603825367,"17":-0.13446557249531932,"18":0.12864838869834794,"19":0.07976762088131999,"20":0.018755448876347218,"21":0.370274314756516,"22":-0.14243171484280515,"23":0.025244388859874012,"24":-0.07910661236887039,"25":0.14592095916997672,"26":0.02796960401741041,"27":0.11565210501561467,"28":-0.04649662142332838,"29":0.07497492209850537,"30":-0.07929996326476015,"31":-0.008793003786806058,"32":0.12950975309402737,"33":0.1792726169152895,"34":-0.13491133747799045,"35":0.1424724925895825,"36":-0.25514034329281615,"37":-0.006200169254786477,"38":-0.18051962166514612,"39":-0.19931415309277803,"40":0.3456905740892421,"41":0.09254638402316677,"42":-0.057258773637547944,"43":-0.035952964343918974,"44":-0.06554972740125142,"45":0.005792082281364571,"46":-0.3189026260340951,"47":0.3072468886401014,"48":0.41736558124361206,"49":-0.2036643164609611}},{"sx":1,"sy":1,"depth":50,"w":{"0":0.06861672007471112,"1":-0.09524088118617838,"2":0.13170204759472112,"3":-0.09899464552389968,"4":-0.01643877902704453,"5":0.28549002723484423,"6":-0.08183998142048333,"7":0.04999071325674488,"8":-0.02188254902172923,"9":0.1465652453233825,"10":-0.08685194751684004,"11":-0.170966188817734,"12":0.056879580318805543,"13":-0.10750705551077704,"14":-0.07348512027431661,"15":0.004931917085938521,"16":-0.042180817297975085,"17":-0.012831005413041456,"18":0.06264570635852437,"19":0.00042021387405887504,"20":-0.015559577849155334,"21":0.006623166960268417,"22":0.032082151961258826,"23":0.16665886760978554,"24":-0.012887860717806076,"25":-0.07088343537932552,"26":-0.21146428605986892,"27":0.18171645074997766,"28":0.14387198910984456,"29":-0.034183702890424224,"30":-0.03444109269905469,"31":0.2003023306526865,"32":-0.28850815551326026,"33":0.1532818829201688,"34":0.2407393821417271,"35":-0.06808134422202607,"36":0.06741129537587928,"37":0.12787675772518878,"38":0.05443070132530902,"39":-0.06049569987818081,"40":-0.10464345163101674,"41":-0.0964383412469552,"42":0.019313820290207392,"43":0.061729095937217184,"44":-0.18999289813527184,"45":-0.11213958971824932,"46":-0.1540936398062752,"47":0.09678416282222838,"48":-0.002152333102995056,"49":0.09854817498515918}},{"sx":1,"sy":1,"depth":50,"w":{"0":-0.10763259053838337,"1":0.3853892758543023,"2":0.17706312607806737,"3":-0.20337215492662353,"4":-0.02283425914033554,"5":-0.1946861074474995,"6":0.27669715607914097,"7":0.012845524544968763,"8":0.017246216683757056,"9":0.05998109889948922,"10":0.10198628393402298,"11":-0.08181420445246924,"12":0.07461394092548879,"13":0.2575849286509973,"14":-0.0582250516710324,"15":-0.09633784125596685,"16":0.1819537532763451,"17":-0.1123005058587837,"18":-0.13530957047353373,"19":0.06954803594737366,"20":0.07574939079756338,"21":0.013644995189998175,"22":0.08755902227912532,"23":-0.0028725469722107036,"24":0.15167329627528914,"25":0.02462777384434771,"26":-0.030260755807584555,"27":-0.1034099028162308,"28":-0.3021872356685675,"29":-0.18657268614125794,"30":-0.09610873829795248,"31":-0.3482844301064911,"32":0.013687189022363641,"33":-0.09403804670541752,"34":0.11693720075641115,"35":-0.035508022802342366,"36":-0.13432595772570716,"37":0.17455441481267756,"38":-0.034095693869873704,"39":0.036031680231646136,"40":0.05437288666610861,"41":-0.4499242427131515,"42":0.05618841435617214,"43":0.08451089937274599,"44":0.0030492320915512404,"45":0.00038707854111166276,"46":0.19537457453213716,"47":0.05632017453167727,"48":0.16043963373755019,"49":0.26329277525579464}},{"sx":1,"sy":1,"depth":50,"w":{"0":0.14191919328119282,"1":-0.13287879326555763,"2":0.037829951727045334,"3":0.04275660347448855,"4":0.06777041068135176,"5":-0.038249004107360464,"6":-0.07584866480402105,"7":-0.03987534696698004,"8":0.11182137281826254,"9":-0.0908929522085464,"10":0.005586084472017294,"11":0.03565326888704185,"12":-0.05966997972822495,"13":0.1013972863068684,"14":-0.11631268724780418,"15":0.03810265866426332,"16":0.2539534241460093,"17":-0.14705462518345305,"18":0.14155858499815158,"19":-0.14231958127689573,"20":-0.13953046225131274,"21":-0.11544117435535194,"22":0.08062560218650647,"23":0.022397697309357145,"24":0.035651897012678235,"25":0.1042174035920825,"26":-0.08134327846427918,"27":-0.013804844048658012,"28":0.014087664680180838,"29":-0.17258381633318604,"30":-0.030253612387892124,"31":-0.23428273802372765,"32":-0.07881827355318669,"33":0.1298379722021605,"34":0.11911465504992388,"35":-0.15313509515289678,"36":-0.2272523311460581,"37":0.18093299700789137,"38":0.20348442963027266,"39":-0.14204657931599743,"40":0.04591157081026841,"41":-0.08692625684846068,"42":-0.2955465249879925,"43":0.11436341718293955,"44":0.14542016002724462,"45":-0.17684752701380338,"46":-0.43135020738438173,"47":0.013279268019545706,"48":-0.04665868164396221,"49":-0.1447239611137999}},{"sx":1,"sy":1,"depth":50,"w":{"0":-0.043647879284307425,"1":-0.09526061922858932,"2":0.10887596477712826,"3":0.02810061887011585,"4":0.39345883767583567,"5":-0.18535969234084282,"6":-0.29071464346153386,"7":-0.03934100012036305,"8":0.10632903935146185,"9":0.11788097235278094,"10":0.1584488623944127,"11":0.24478651560464276,"12":-0.28428063019665734,"13":-0.07016912408184714,"14":-0.11776449757446535,"15":0.024682577586134846,"16":0.2104102030497181,"17":-0.24344472949810952,"18":-0.303764426242854,"19":-0.3469242771746236,"20":0.4302156669443711,"21":-0.022037660413384355,"22":0.6121334328510224,"23":0.01769045816695699,"24":-0.602837232511409,"25":0.03787226583820891,"26":-0.19494028320963824,"27":0.3572980901341127,"28":-0.41123179288238004,"29":0.4422725210403375,"30":-0.1998773712311141,"31":-0.031841828249833795,"32":-0.008235471271119562,"33":0.32777345807487673,"34":-0.04102594568206508,"35":0.04349012893910475,"36":0.14971791688737585,"37":0.13290118074902552,"38":0.3243791191271689,"39":-0.041491932756808604,"40":0.4137348711559567,"41":-0.2269174896792313,"42":0.0034240966586069834,"43":-0.056469504986582555,"44":-0.11067696077903572,"45":-0.3321007722397118,"46":-0.546439080363979,"47":-0.3081665078088243,"48":-0.09797676129135063,"49":0.01303850964360817}},{"sx":1,"sy":1,"depth":50,"w":{"0":0.006924466071719924,"1":0.014353798937784344,"2":-0.10190357448537635,"3":0.09631010292345969,"4":0.10797599967594047,"5":0.28195106894157246,"6":-0.06405055600120795,"7":-0.27405445420929997,"8":-0.03120266152974435,"9":0.03943435716688742,"10":0.19492174829306777,"11":0.1368247481802642,"12":0.07010907697497983,"13":0.2805099748271649,"14":-0.0745486884325267,"15":0.01979261185831236,"16":-0.023318308727103425,"17":-0.2976925463012128,"18":-0.11754657453040983,"19":0.2108198981247402,"20":0.37715418957378816,"21":0.004889890216949682,"22":0.11356368874994903,"23":0.19956953127065208,"24":-0.015894926979918234,"25":0.02533347203879801,"26":0.0344325384303619,"27":0.17292988028720965,"28":-0.20536208327214847,"29":0.0011195755601999381,"30":-0.16383078922754601,"31":-0.33487628206997905,"32":0.07008200407720996,"33":0.09347673143332069,"34":0.3036327526908232,"35":0.09172199655259586,"36":0.06958223565832145,"37":-0.056554909755933074,"38":0.041447469621783244,"39":-0.030670640886874434,"40":-0.07146127895591123,"41":-0.10948345374832923,"42":-0.09562801301022653,"43":-0.21286035980509432,"44":0.14318525667699872,"45":0.0562274389451596,"46":0.23483819060348715,"47":0.0007593703448401197,"48":-0.239492440330653,"49":0.24856060966942697}},{"sx":1,"sy":1,"depth":50,"w":{"0":0.33893448527791803,"1":0.4591483654454753,"2":0.11590407500913177,"3":0.29574049567458066,"4":0.24155429920364882,"5":-0.1574084896337578,"6":-0.3397396688431767,"7":0.06448633830476945,"8":-0.019058182744030268,"9":0.043199087624496424,"10":0.22927540932370902,"11":0.33329227432496306,"12":-0.3249688409045726,"13":-0.08740918828592846,"14":-0.04299500631909596,"15":-0.24383178333030295,"16":-0.19084945697536349,"17":-0.027475229351998635,"18":0.19406800521733683,"19":0.06703444868141933,"20":0.19991853452408354,"21":0.06575025079884718,"22":0.07656079214771369,"23":-0.2583507373608457,"24":-0.15744918824531673,"25":-0.17672083907505545,"26":0.21758905171785656,"27":-0.29643221147187293,"28":0.06359353299165353,"29":0.17660691634916173,"30":-0.19304940152779929,"31":-0.06423202496134889,"32":-0.015738584659269455,"33":0.17326824921559972,"34":-0.06634856405011115,"35":-0.10441179860277715,"36":-0.08590806379523724,"37":-0.129732056929983,"38":0.2605836886367934,"39":0.045824074857900236,"40":-0.20153877302563988,"41":0.06384859018106982,"42":0.13095963313082304,"43":0.2834792940580665,"44":-0.2411813823174994,"45":-0.07346613882885246,"46":0.02377072846589605,"47":0.0010686138615498158,"48":0.1412146687665266,"49":-0.10882012808689134}},{"sx":1,"sy":1,"depth":50,"w":{"0":-0.07516557562503363,"1":0.0412081330500455,"2":0.00037126243135806154,"3":-0.10277666872670325,"4":0.014959468633901643,"5":0.14566133856946462,"6":-0.0834279770804122,"7":-0.023699983985790995,"8":0.03227849429127565,"9":0.10412596347430518,"10":-0.027666416111615036,"11":-0.061117424367996644,"12":-0.15958067259699885,"13":0.10592611385483588,"14":-0.06238543376113131,"15":0.06836445499599542,"16":-0.031202495077505433,"17":0.012595996107782167,"18":-0.0017543213728214416,"19":-0.10672062444805633,"20":0.08437615928445184,"21":-0.17932975477480664,"22":0.017627203572080925,"23":0.132751632842207,"24":-0.07990301763826371,"25":-0.3121507041590032,"26":0.1494569518512436,"27":0.07839966059380261,"28":-0.12539012608887148,"29":-0.15927693481954308,"30":0.10135976012288751,"31":-0.1750246148909586,"32":0.04743448638005848,"33":-0.26037820578657733,"34":-0.07844257840795663,"35":-0.12420276309503851,"36":-0.06679871414111532,"37":-0.10292976867148393,"38":0.0614358701281914,"39":-0.13542130991895363,"40":-0.16639275501430018,"41":-0.04068369302982065,"42":-0.17222224256743032,"43":-0.17264943686526651,"44":0.01572468491515663,"45":0.06833033778173588,"46":0.18297461651554434,"47":0.04301031560058419,"48":-0.046492940795949324,"49":-0.048312160373897135}},{"sx":1,"sy":1,"depth":50,"w":{"0":0.35591875371146103,"1":0.0828745534483944,"2":-0.01643675379081873,"3":-0.12620956234129843,"4":0.14595978188678665,"5":0.2189183067614814,"6":0.28990007759007835,"7":-0.03121650593785432,"8":-0.0012939302457609,"9":0.06538180650764606,"10":0.044010522004531996,"11":0.13389874266488555,"12":0.3269970635564389,"13":0.160107594578975,"14":0.12617340533781107,"15":0.3490678831456412,"16":-0.05582514643266841,"17":-0.03757086718718376,"18":-0.0435995698850857,"19":-0.07659801914436092,"20":0.1251506587404477,"21":0.0444112442106872,"22":-0.08183551460996222,"23":-0.2781145885092824,"24":0.3333388233655505,"25":0.09205357749191599,"26":0.18343123062022385,"27":-0.12396811927215896,"28":-0.013086592497216356,"29":0.13518021960824247,"30":-0.25055611255509735,"31":0.1829292390989767,"32":0.044336371634657486,"33":0.023518087982295585,"34":-0.07635642787509918,"35":-0.2081817257770941,"36":0.14703505470525188,"37":-0.08755833594146077,"38":0.28106005622045743,"39":-0.043762015062059005,"40":-0.34129396423600317,"41":-0.1374606968617968,"42":0.1156078011377782,"43":-0.20918662614261047,"44":-0.04065992128289667,"45":0.03003138623580515,"46":0.1309736046497853,"47":-0.3264309300956131,"48":-0.2793273585148712,"49":0.011540866395590292}},{"sx":1,"sy":1,"depth":50,"w":{"0":0.13820755154334521,"1":0.11633369816772476,"2":-0.24142423008092684,"3":-0.2375580806631072,"4":0.05154893396318783,"5":0.16647516952699953,"6":0.11688362164237144,"7":-0.05560787665619877,"8":-0.15027994531541639,"9":-0.03944988091366827,"10":-0.12385492574208562,"11":-0.0527415820279671,"12":0.1615705005951546,"13":0.061470511066625856,"14":-0.15833869873291326,"15":-0.21129838943011278,"16":-0.09310647386554294,"17":-0.04557839721945361,"18":-0.059440702038180644,"19":0.004984347899170016,"20":0.06236330936090631,"21":0.053090640217468364,"22":-0.15187389733476517,"23":-0.2537271147592565,"24":-0.08602300601516628,"25":0.010304498494031386,"26":0.07485936493360076,"27":0.21245777001119814,"28":-0.05670270650799543,"29":-0.17083756537289901,"30":-0.023605842068324473,"31":0.21810183193725957,"32":-0.2837073137874642,"33":0.024506059805259918,"34":-0.1637409077900041,"35":-0.06299647854520936,"36":0.14037162502949727,"37":0.025625860438967578,"38":0.3301216425962948,"39":-0.058234413283337144,"40":-0.07646113788800998,"41":0.0049293958438543185,"42":-0.09373485468179488,"43":0.17167761427670655,"44":0.14627450005608514,"45":0.09915202565012284,"46":0.08107842442089389,"47":0.23180202725481625,"48":-0.08946856363657751,"49":-0.11141947941988829}},{"sx":1,"sy":1,"depth":50,"w":{"0":0.41632059353779693,"1":0.10482548104852989,"2":0.025810873478735872,"3":0.0931579740359671,"4":-0.10634684421960584,"5":0.052665391017592045,"6":-0.01023880106770646,"7":0.049877676420521926,"8":-0.2655364083867515,"9":0.07858819107840563,"10":0.04586080519609275,"11":-0.09675882726870144,"12":0.16730998443251785,"13":-0.12884140205015632,"14":-0.13236237292262734,"15":0.1273254114756751,"16":-0.2542281798968701,"17":0.2365713513915254,"18":-0.11124537344172283,"19":-0.18183660970506932,"20":-0.09156007093296584,"21":0.06134910219530364,"22":-0.04220826538991621,"23":0.055721613693494286,"24":0.18891233011362873,"25":0.3000312312616834,"26":-0.020907300703619795,"27":-0.15378485142377596,"28":-0.027039299574226756,"29":0.16036820977647087,"30":-0.2179530126927946,"31":-0.368657168084128,"32":0.005323996018824013,"33":-0.054949372408417234,"34":0.0262613746755874,"35":-0.06349558917648229,"36":-0.0980315353978231,"37":-0.16399520580847246,"38":-0.08481349766966295,"39":0.049995248223549234,"40":0.06318322671474887,"41":-0.008609591880044527,"42":0.13379530296532008,"43":-0.35416720739372165,"44":0.04479355009490079,"45":-0.04221641022395373,"46":-0.13511484708464297,"47":0.17406092730108694,"48":-0.007059764516335474,"49":-0.1688492774293473}},{"sx":1,"sy":1,"depth":50,"w":{"0":0.28594293915430813,"1":-0.02679728745738295,"2":0.04868429799385807,"3":0.033206518451652824,"4":0.3864649656830099,"5":0.004233349641738524,"6":0.11925184320482665,"7":0.026133407697939537,"8":-0.22628552504081045,"9":0.4018137188235874,"10":0.23733742301562882,"11":-0.09260693175926815,"12":0.2328790295106788,"13":0.08263396597309884,"14":0.08240921924829739,"15":0.1837756977295473,"16":0.3949981674682997,"17":0.12546272608360196,"18":-0.20785890512163718,"19":0.03031382534026843,"20":-0.04428110153861011,"21":-0.07422947025506896,"22":-0.2479470287838698,"23":0.16209222546827523,"24":0.3630784504785199,"25":0.17686743274307778,"26":0.09384108310098754,"27":-0.0582356419402033,"28":-0.040844955305726426,"29":-0.22677487129800497,"30":0.1515053439285993,"31":-0.02895154065951962,"32":-0.05517874108942348,"33":0.09691651539896542,"34":0.08707154119967704,"35":0.04258560590357735,"36":-0.24747079014073342,"37":-0.04266176872970961,"38":0.30923589815451047,"39":0.1318737678829006,"40":-0.3116515616982218,"41":-0.011018949241507677,"42":-0.04605635236941805,"43":-0.07085073509533582,"44":-0.123327195695365,"45":0.1794981761550997,"46":0.1649592876979432,"47":-0.08151037253287143,"48":-0.11390378330007864,"49":-0.02025173015093932}},{"sx":1,"sy":1,"depth":50,"w":{"0":-0.25018650872215537,"1":-0.19566189117449667,"2":-0.14091270079599164,"3":-0.09173357477975276,"4":0.15840091188306085,"5":0.017866224387562985,"6":-0.023577945216826504,"7":-0.035770436892309326,"8":0.10540556374460457,"9":0.07935680087621227,"10":-0.23598713692426979,"11":0.20832583067419772,"12":-0.0575035970350928,"13":-0.045618202899939925,"14":0.06220810520523665,"15":-0.16317469751145164,"16":0.12051999126044073,"17":0.05101733749815229,"18":0.042536834596274074,"19":-0.39432524928859575,"20":0.004098177637996635,"21":0.07337184473131349,"22":0.06609187971065203,"23":-0.13025607124250968,"24":-0.07965200130079343,"25":-0.07239894525121304,"26":0.011398021789093092,"27":0.021719246447940536,"28":-0.29210210681891197,"29":-0.10681441650101473,"30":0.06400748870557768,"31":0.058713370300680835,"32":0.14145287970672502,"33":-0.07577036529941632,"34":-0.25011972930157206,"35":0.08535215808472431,"36":0.062212251492365256,"37":-0.1339820284314799,"38":0.05830808867717775,"39":-0.020135276935883264,"40":-0.015159050226517269,"41":-0.053727749791804016,"42":-0.0589378141679238,"43":-0.10082446538887745,"44":0.21661702431330876,"45":0.03951170123048844,"46":-0.02308421978953686,"47":0.0006985073218717346,"48":0.08935859821646176,"49":-0.12453016303552294}},{"sx":1,"sy":1,"depth":50,"w":{"0":0.1828599374701329,"1":-0.11380692497793288,"2":0.07951550438488057,"3":-0.06962880446300049,"4":0.05439398901838055,"5":-0.2467768572795485,"6":-0.034755732260646065,"7":-0.1836136683745433,"8":-0.23987891559325025,"9":-0.1022228211721091,"10":-0.03691357203676547,"11":0.05832931362092705,"12":-0.0878932885922072,"13":0.1474922624664745,"14":-0.2714683491982911,"15":-0.1620784935381576,"16":0.0747950508818089,"17":-0.19273242048930797,"18":0.136728129838058,"19":0.18200803805371465,"20":0.025112694114580687,"21":0.33900055682853525,"22":0.14946258073186044,"23":0.2735979425861633,"24":-0.26250905758464255,"25":0.001276142347325269,"26":-0.07329386561470481,"27":-0.04168915792330199,"28":0.03532968747824361,"29":0.2203978578370839,"30":-0.04598252449985998,"31":0.13316053762112462,"32":0.03285314857847818,"33":0.16958214851727574,"34":0.020371656300940434,"35":0.13344308005708966,"36":0.01396937970503685,"37":-0.04599592769952982,"38":0.019330090668356007,"39":0.1334876371065481,"40":-0.19960600537338963,"41":-0.10723917076414066,"42":0.02013943523951747,"43":0.1464222325175216,"44":0.1603335303020704,"45":-0.2381692618652315,"46":-0.010103522475703034,"47":-0.41527716587270097,"48":0.24601019718467232,"49":-0.0795163369537575}},{"sx":1,"sy":1,"depth":50,"w":{"0":0.03248434848785894,"1":-0.13783614313000933,"2":-0.08293113053383512,"3":0.12177537643504421,"4":0.2980249131050167,"5":0.3637649107349945,"6":-0.06746128165194264,"7":0.011310984040829695,"8":0.10480808848888483,"9":0.06315817750229051,"10":0.07001309052710855,"11":-0.3124584053631796,"12":-0.23863587064962594,"13":0.050592314893550545,"14":-0.004014779346669856,"15":0.4229677159478057,"16":-0.025517767708467688,"17":-0.23960883034129624,"18":-0.08304047144429069,"19":0.1408452482018324,"20":-0.05461822103822542,"21":-0.23239655292892764,"22":-0.18722330427100595,"23":0.1458165678276787,"24":0.0039947717619266175,"25":-0.018311437204935367,"26":0.03157310850929981,"27":0.027741175918945107,"28":-0.19939297385661725,"29":-0.022982811177892488,"30":-0.009819413758194555,"31":0.05679257133434867,"32":-0.01468639467173794,"33":-0.05711062341839183,"34":-0.13687370418514216,"35":-0.07693803622619702,"36":0.14048363465848684,"37":-0.13438028256939447,"38":-0.347719633662213,"39":-0.05581169271312712,"40":0.004509027108783606,"41":-0.031128047009802085,"42":-0.12642725127349586,"43":0.11168416844982157,"44":0.008104588614139669,"45":0.25276986356766346,"46":-0.13976841987635785,"47":-0.041048766990599596,"48":-0.16575238679236484,"49":0.2494818028728104}},{"sx":1,"sy":1,"depth":50,"w":{"0":-0.021054376734830647,"1":0.02072182413121061,"2":0.04072410931235405,"3":-0.31959113789371985,"4":0.15966309918517746,"5":-0.09558161814862176,"6":0.12105200615286137,"7":0.15921444174818666,"8":0.1620482562681977,"9":-0.004410417733556051,"10":-0.0602110142072171,"11":-0.11638613296792491,"12":0.05718999216509446,"13":-0.08876963147851229,"14":0.022375175009868416,"15":-0.0030746045810839087,"16":0.18760109356465193,"17":-0.23907990558856923,"18":-0.044450309866775825,"19":-0.07897251252485164,"20":0.10472825437132285,"21":-0.06518898399889607,"22":0.07609526281261517,"23":-0.03926132655142135,"24":-0.05102932243760506,"25":-0.09660199751210641,"26":0.21922341686839852,"27":0.02396393158579323,"28":-0.0998280133707415,"29":0.16910636974055165,"30":0.005686312767010217,"31":0.2582196498705819,"32":-0.26161379047628425,"33":-0.04747600857955475,"34":0.003476331315543895,"35":-0.11247582097382398,"36":0.13245061415213796,"37":0.1505811576229284,"38":-0.028648868119947105,"39":-0.2209273742921026,"40":0.07939973478556334,"41":-0.1271722288472492,"42":-0.1650777187727924,"43":-0.22648327190017015,"44":0.09806080422000531,"45":0.2507551217025377,"46":-0.321188657861102,"47":-0.14763835732567895,"48":0.025831988648528346,"49":0.13103064980097673}},{"sx":1,"sy":1,"depth":50,"w":{"0":-0.24591096011354613,"1":-0.03647904622391025,"2":-0.03019518969844661,"3":0.025891234682623894,"4":0.12965771221807842,"5":-0.021517205109399633,"6":-0.13661468689038164,"7":-0.13808384784526112,"8":-0.09515250775625514,"9":-0.15202097856064573,"10":-0.09805281500886188,"11":0.16262549014620278,"12":0.323261993437718,"13":-0.32917366631051304,"14":0.011707514680863819,"15":-0.010117863171017935,"16":-0.1672118411310237,"17":-0.15259755570523068,"18":-0.08851569445297584,"19":0.16406589712809128,"20":0.06397792347679576,"21":0.1165871215041848,"22":0.09686322669428223,"23":0.05118206175144275,"24":-0.0019338866150224274,"25":0.12177830279326213,"26":-0.29232971040871747,"27":-0.021246041788298742,"28":0.057369539265069824,"29":0.07734123769591206,"30":0.006261630999907905,"31":-0.21965431153175133,"32":-0.17273856689508105,"33":-0.09153438810622527,"34":-0.14728148342931036,"35":0.16469646098461027,"36":0.08386122919316834,"37":-0.061847139782833085,"38":0.11221580574266848,"39":-0.00810154800924833,"40":-0.33863142736442275,"41":0.041645961368785386,"42":0.22564380742851606,"43":-0.11997605753251935,"44":0.29588905358380785,"45":-0.35339017477037765,"46":0.06807661886113583,"47":0.1429026982169431,"48":0.40728487842866556,"49":0.17855095914602662}},{"sx":1,"sy":1,"depth":50,"w":{"0":0.2454367320574903,"1":-0.24242387871373958,"2":0.006178424582157714,"3":0.09874070514288057,"4":0.11968340553494439,"5":0.010501256246633065,"6":0.12750055046495032,"7":-0.216480083078589,"8":-0.04537737165917552,"9":0.15016648729304669,"10":-0.13107987907343724,"11":0.03243877441905368,"12":0.15960441163618744,"13":0.09226203817037373,"14":0.0010585509292558848,"15":-0.16585857875788576,"16":-0.010435905028038591,"17":0.04563951584952451,"18":0.09289538260813648,"19":-0.11270845500463615,"20":-0.006338128513919247,"21":-0.09645115912543294,"22":0.2735957322090917,"23":0.06697540073486585,"24":0.26968961576407363,"25":0.1885392093497818,"26":-0.2783604110970877,"27":-0.2188904014457117,"28":0.1657191652299008,"29":-0.07107362809277637,"30":0.277545468449079,"31":-0.13475961131965863,"32":-0.05046148277390835,"33":-0.0541803669650119,"34":-0.03948386787214473,"35":-0.03833652557352257,"36":-0.14336739707164756,"37":0.043290178950414385,"38":-0.019521329483275323,"39":-0.027768878461307985,"40":0.3296580345850521,"41":0.40544441322831926,"42":0.10356949866951841,"43":0.1554376778637998,"44":-0.1606375353079388,"45":0.27424237221864056,"46":-0.20889864490691487,"47":0.07663808846012901,"48":-0.03005847971972415,"49":-0.05821409994327147}},{"sx":1,"sy":1,"depth":50,"w":{"0":0.40675671691783555,"1":0.05469624948893105,"2":-0.07215665541762235,"3":0.010362822730009135,"4":0.14226181505299915,"5":0.5025932857921752,"6":0.24149516350117595,"7":-0.062359725246164704,"8":-0.48499555282132273,"9":0.2716423063275421,"10":-0.015126329991121137,"11":-1.1514981754637437,"12":0.26317244908874043,"13":0.657447577929954,"14":-0.11467206351163786,"15":0.018391178962329346,"16":0.14480495438761276,"17":0.35254585097893576,"18":-0.33289895787501633,"19":0.17036429285704635,"20":-0.06308958629817595,"21":-0.8366724831835768,"22":0.5648015382780616,"23":1.277033504468591,"24":0.4546810861174447,"25":-0.18396558314819172,"26":0.11132832666639042,"27":-0.1341141159696385,"28":0.2838052161989522,"29":-0.4399359214426093,"30":-0.1366964823047802,"31":-0.35883529733779457,"32":0.05964344202386396,"33":-0.22310446602612785,"34":0.38156168002397367,"35":0.0778289580802799,"36":-0.1788372784961782,"37":0.16663217522078227,"38":-1.1469947040183763,"39":0.4387918704978615,"40":-0.0820717412179103,"41":0.07715362988616721,"42":-0.15254082273178982,"43":0.013300242162394608,"44":-0.44236829387835247,"45":-0.15585236076924697,"46":-0.09214828062608492,"47":0.06274938873861298,"48":-1.0878776964572527,"49":-0.03358153307227337}},{"sx":1,"sy":1,"depth":50,"w":{"0":0.050728913708615125,"1":0.035266635108288036,"2":-0.030774860965879756,"3":-0.034628994163576635,"4":-0.15886474669627418,"5":0.005401148371723147,"6":0.05525754365899601,"7":0.2045962345327773,"8":0.1353455943698809,"9":0.10461842954589944,"10":0.04178390165984212,"11":0.023658966540489317,"12":-0.0034873544910635477,"13":-0.086772459532537,"14":-0.11536615020702688,"15":-0.03478629600076298,"16":0.08296005297544123,"17":0.043782671576342455,"18":-0.0693774217820128,"19":-0.08143503493769884,"20":0.2054750806794327,"21":-0.1630360227090865,"22":0.2305550954748344,"23":0.0035032826719254254,"24":-0.04684300225445063,"25":-0.1036695683743435,"26":-0.02871892535374151,"27":-0.12686412388252408,"28":-0.05301385178982083,"29":0.24099532367632004,"30":-0.516201518143364,"31":0.028505406106421938,"32":0.0878967520221627,"33":-0.09135472612594306,"34":0.28655359192358454,"35":0.07963290286645752,"36":-0.02881103993761993,"37":-0.05445600947042329,"38":-0.19687224442921833,"39":0.16911782318758578,"40":0.0020134822298895536,"41":0.002342829735737628,"42":0.20091540292848953,"43":0.09908618606009298,"44":0.0783979032133885,"45":0.09990297853044346,"46":-0.03387318469420882,"47":0.16393668130587466,"48":0.130647977861771,"49":0.0805171647748606}},{"sx":1,"sy":1,"depth":50,"w":{"0":-0.3820550503816448,"1":-0.11672755961282075,"2":0.2091563884877674,"3":0.21669654184893863,"4":0.06947529949971762,"5":-0.2745076800287658,"6":-0.20046386582765086,"7":0.028475884525438134,"8":0.29508310737292076,"9":-0.052194546949371326,"10":0.16802304899346515,"11":-0.013063734348777925,"12":-0.09550831823301961,"13":-0.12426263920160566,"14":-0.02515518536235532,"15":-0.16161362620605724,"16":-0.01037213253419665,"17":0.1247384791259344,"18":0.10215560250103069,"19":-0.1820879522067343,"20":-0.13270833850188402,"21":0.24525489336794937,"22":0.07800732419944899,"23":-0.05781812934454076,"24":-0.161214803073439,"25":-0.024045919316631626,"26":0.05344380962762438,"27":0.06584569338544435,"28":0.033495883808148975,"29":0.2981407654603127,"30":-0.0024719303602166592,"31":-0.28059614050247156,"32":0.2828599085605749,"33":0.2348559396634017,"34":-0.22087628939701157,"35":0.02585726367687464,"36":0.07884973627901114,"37":-0.035738691119815875,"38":-0.04841984043738154,"39":-0.130404642126934,"40":0.44135377098202233,"41":0.366444166008254,"42":-0.23184805084823468,"43":-0.05232683684659526,"44":-0.1647346302865668,"45":-0.045902565604757126,"46":0.11728323945237382,"47":0.35947758673637453,"48":0.21190763088298795,"49":-0.080112225251616}},{"sx":1,"sy":1,"depth":50,"w":{"0":0.1841545357320152,"1":-0.04524016175335027,"2":-0.06648027193218649,"3":0.1863763223362146,"4":-0.07787450587162159,"5":-0.2725797221483272,"6":-0.025341204520385754,"7":-0.021131349602501823,"8":0.16638965106118872,"9":0.019844529686646323,"10":-0.07286213290189714,"11":0.14952912636892754,"12":0.06729716491918818,"13":-0.2586366364090854,"14":-0.03400551759442448,"15":-0.27168684164050505,"16":-0.11369464907869566,"17":0.06827797489807187,"18":0.3182066048860643,"19":0.1987580079309907,"20":-0.23931522696226662,"21":-0.11634715786198577,"22":0.13616746588960102,"23":-0.09330609998135889,"24":-0.22134392928634825,"25":-0.0161786955101155,"26":0.10580757121925546,"27":-0.07212021592065433,"28":-0.03776986560529462,"29":-0.02195368934448479,"30":0.03065002735621706,"31":-0.1057259662055533,"32":0.11593896100343527,"33":0.10791245875846454,"34":0.05290177209244339,"35":0.1353791398206374,"36":0.4638219170952395,"37":-0.1364274469625249,"38":0.021620505428845745,"39":0.09780266660242885,"40":-0.05720218495810693,"41":0.38155000013761303,"42":-0.051944901244222255,"43":0.1729577718904902,"44":0.1853814746594798,"45":-0.13279598278579394,"46":-0.1768442393359741,"47":-0.1398513840614938,"48":-0.10414505254229407,"49":0.1208416322653337}},{"sx":1,"sy":1,"depth":50,"w":{"0":0.026036966973903983,"1":0.08347099071911411,"2":0.07550115060008523,"3":0.00792547317884602,"4":-0.13559783990001842,"5":0.20830188269255773,"6":-0.08286796162020614,"7":-0.025009102578787315,"8":-0.12465460697698219,"9":0.14963126108183833,"10":0.020825285074081285,"11":0.012478723593090464,"12":0.284789405304463,"13":-0.08721949818594732,"14":-0.2964334661548776,"15":0.14845553530834343,"16":0.041228260483772754,"17":-0.12299953553797467,"18":-0.1876066805701646,"19":0.12098981927900344,"20":0.2715614549246781,"21":0.4729560311794769,"22":-0.09977753855508377,"23":-0.25204648243540817,"24":0.12533785203104458,"25":-0.24579634609607284,"26":-0.21680966164733922,"27":0.09707206598832242,"28":-0.0954569026824836,"29":0.14167655728586304,"30":-0.055349075451806354,"31":-0.04431034844338667,"32":0.21130486705449705,"33":0.20891619275436638,"34":0.1340102730703315,"35":-0.04701214085001823,"36":-0.007934882347299952,"37":-0.12688604293767408,"38":-0.25920458993292783,"39":-0.01277036712151713,"40":0.22070572987867326,"41":-0.07688711034541768,"42":-0.14378905031410522,"43":0.11441603033968326,"44":0.04449633659354827,"45":0.05290246959360855,"46":-0.015218539724306772,"47":-0.058750627978663296,"48":0.5932283141327641,"49":-0.06701768600856804}},{"sx":1,"sy":1,"depth":50,"w":{"0":0.07534278145588615,"1":0.02786973448611235,"2":-0.16375966803286823,"3":-0.05743186104812932,"4":-0.15466437512600048,"5":-0.09572212778123447,"6":-0.0932564514996942,"7":0.011054991713436248,"8":0.3324736242768523,"9":-0.018157993584552667,"10":0.034493886129092155,"11":0.03200121123870423,"12":0.10496930267458672,"13":-0.24170731359175263,"14":0.12029488591074,"15":-0.09982773257025422,"16":-0.14617268634438157,"17":-0.19560281887502365,"18":0.2889728227219179,"19":-0.17389502277961413,"20":-0.05221422604263621,"21":0.0030400629336084857,"22":-0.2677640642454338,"23":0.06489076034014184,"24":-0.014277827033944535,"25":-0.09371509758213463,"26":0.0450844190673229,"27":0.008065100379244232,"28":-0.052980718950165186,"29":0.2395745592472653,"30":-0.11398999600101037,"31":-0.07653971097417636,"32":0.0651822155301932,"33":-0.23398857725828204,"34":0.014505081121883383,"35":-0.0005036126643405688,"36":0.11199439349021298,"37":-0.16056401081939317,"38":-0.061132503169535606,"39":0.1490375780229601,"40":-0.06769639032127343,"41":0.0250988679510702,"42":0.0746170072249164,"43":-0.03759816772917591,"44":0.07082558847539473,"45":0.07602861964552204,"46":-0.0985902816020338,"47":0.14613995809374974,"48":0.24858081362474677,"49":0.016963804122706438}},{"sx":1,"sy":1,"depth":50,"w":{"0":-0.11126069151975464,"1":0.17178327404482407,"2":0.019972810287641616,"3":0.40556438555249785,"4":-0.0021595409196897416,"5":0.2940873467380255,"6":-0.0008080512116655574,"7":-0.3093266544954029,"8":0.1377100665033116,"9":0.04499718905248295,"10":-0.23832801793216718,"11":0.11061704261408768,"12":0.06582759154984162,"13":0.030821103257618415,"14":-0.2197341683728277,"15":0.15597293885648722,"16":-0.014570418055111408,"17":-0.02171855478096466,"18":-0.32577220377147786,"19":-0.008644292286220075,"20":-0.06118844056907681,"21":-0.013485611455764265,"22":0.040280225642227545,"23":0.013283991282226982,"24":-0.16614463357240197,"25":-0.05391405653650897,"26":-0.2667982923488068,"27":0.1794392387789685,"28":-0.10370472280573333,"29":0.0809454717185155,"30":-0.04179802242935156,"31":-0.20145770054577306,"32":0.020852011184758507,"33":-0.023551366954301878,"34":0.4459263991606,"35":-0.06550187438824706,"36":0.004878159011221402,"37":-0.05202483259547333,"38":-0.02439513035788813,"39":0.03189392678058277,"40":-0.07063182913176085,"41":-0.019501482925973906,"42":0.15878221524705963,"43":-0.2579241062793742,"44":-0.10259495541752288,"45":0.06616582133265071,"46":0.1016049311177779,"47":0.018550903599164118,"48":0.09783260671843205,"49":0.1061487141565713}},{"sx":1,"sy":1,"depth":50,"w":{"0":-0.06980922511391863,"1":-0.061044673281865976,"2":0.16453170285739593,"3":-0.0065332273096290906,"4":0.06280547721822428,"5":0.036838413400594267,"6":0.0006433950603935348,"7":0.07751690078848375,"8":0.07461667594171296,"9":0.024090615725845737,"10":-0.13890953199714923,"11":-0.09121750992981856,"12":0.1832154022409622,"13":-0.13594749334470294,"14":0.01917956592379464,"15":0.1916284405204768,"16":0.13236648288782593,"17":0.14502255285273358,"18":0.26313331612180235,"19":0.10973689730715594,"20":0.056278588417186436,"21":0.2761843120623227,"22":-0.0036000511923925923,"23":0.25918670254329346,"24":0.061657648363981576,"25":0.1867269658432501,"26":0.04596379471933019,"27":0.1887068257944991,"28":0.1930505513963639,"29":0.22277803944882069,"30":0.12984957273439315,"31":-0.06328457465913427,"32":0.07623359085607935,"33":-0.1977566170368093,"34":-0.03165237127592624,"35":0.1336472740675648,"36":0.2177848981360764,"37":-0.08466423039978935,"38":-0.05956121900443093,"39":-0.04967560522332079,"40":-0.02395395859200038,"41":0.10245451540064017,"42":0.0061072567291645076,"43":0.08438482113868966,"44":0.04529946877681,"45":0.05497140144507814,"46":-0.2273879133117773,"47":-0.04485528411523907,"48":-0.12722713945769298,"49":0.00018657624443561266}},{"sx":1,"sy":1,"depth":50,"w":{"0":0.06450317499887454,"1":-0.00393415092019942,"2":-0.01705956523639768,"3":0.11831328030824312,"4":-0.028577019838940287,"5":-0.012645928990003592,"6":-0.06030885734129655,"7":-0.022061557068243497,"8":-0.048803506452432296,"9":0.06539418666389257,"10":0.30826269690896885,"11":-0.2066961844252665,"12":-0.15028701256636132,"13":0.015569865689556745,"14":0.013203198608417666,"15":-0.12186524344113994,"16":-0.01726183563930487,"17":-0.007109158531600034,"18":0.09697931311390742,"19":-0.15109965771938924,"20":-0.11427577651072025,"21":0.15285985490428416,"22":0.2987461167987266,"23":-0.09671168549395569,"24":-0.12971251377357546,"25":-0.2188988370934411,"26":0.11953689062066504,"27":0.1600304614787764,"28":-0.14594752625841498,"29":0.19075293223780382,"30":0.11139950906537952,"31":0.19509737616255243,"32":0.06876610466138468,"33":0.2624326337093928,"34":0.153308427031898,"35":-0.2256263735262667,"36":-0.06580715465204769,"37":0.09668815631650489,"38":0.011367714321043965,"39":-0.10288301264804425,"40":0.27565526507245136,"41":-0.050042626201818256,"42":0.06295400835098958,"43":0.13295468511737943,"44":-0.04707022972637466,"45":-0.09407036954906628,"46":0.042492987320260196,"47":0.07360426769517794,"48":0.03307023734732083,"49":0.005950015340843871}},{"sx":1,"sy":1,"depth":50,"w":{"0":0.22688527938551661,"1":-0.08186800577243009,"2":-0.11830909388925516,"3":-0.21289449284077547,"4":-0.12481370453880238,"5":-0.06546409952623963,"6":-0.15394640102981547,"7":-0.18785368771494124,"8":0.0006889084215091519,"9":0.0065639500050968524,"10":-0.2046237812829576,"11":-0.0017489639974346692,"12":-0.14508391960732625,"13":-0.08678693659966859,"14":-0.08573318142222122,"15":-0.052745296160916166,"16":-0.02711240364485284,"17":-0.004210166420816128,"18":-0.06415405175785024,"19":-0.12614834403845596,"20":-0.0693776512419917,"21":-0.025953198704118153,"22":0.040241949521428615,"23":-0.06803301400867244,"24":0.12688140907327766,"25":-0.11549179090593403,"26":0.19874302669112245,"27":-0.050304782400825046,"28":0.14763236150514705,"29":-0.06341116741214708,"30":0.15751786688636707,"31":-0.06905436191791435,"32":-0.10017860562633202,"33":-0.058987840526299844,"34":0.04324871593534188,"35":0.04630878544090156,"36":0.21299672981643317,"37":0.15496106913835658,"38":-0.11794318423666636,"39":-0.33653070886795056,"40":0.02716979962993162,"41":-0.24376269144217536,"42":-0.11895441107885052,"43":-0.03663982028480847,"44":0.0036319636779025004,"45":-0.2111621903073296,"46":-0.08276482363983129,"47":-0.052413648126968804,"48":0.1651389361075938,"49":-0.14034613605557555}},{"sx":1,"sy":1,"depth":50,"w":{"0":-0.250277284863611,"1":0.023825128336936105,"2":-0.007951759520908751,"3":0.10979915557867068,"4":-0.01683009843894301,"5":0.17411909125162645,"6":0.0653300815442553,"7":-0.01393145009041439,"8":0.14820690574860995,"9":0.10145872633123065,"10":-0.10299815743508071,"11":0.10870425442361244,"12":-0.25901859749046463,"13":0.10016893786605889,"14":0.007545408595486893,"15":-0.21013753626115114,"16":-0.19176884387863816,"17":-0.08052527989743773,"18":-0.012119873795463247,"19":-0.07779374379067373,"20":0.01126755818987749,"21":-0.2666094113191462,"22":0.3364376745123119,"23":-0.03600180927275059,"24":-0.07117035609227103,"25":-0.11548695436722294,"26":-0.12961409125105725,"27":0.27819479665891783,"28":0.18376368990456793,"29":0.23403114027251287,"30":-0.014342052917634723,"31":-0.17432711217718444,"32":-0.01236835844364337,"33":0.2087525261005924,"34":-0.007432608388697771,"35":0.08222326513079148,"36":-0.056817048805911964,"37":0.23729852399499266,"38":0.041806848339993964,"39":0.1424701148670765,"40":0.09108759273534739,"41":-0.13680510595158418,"42":0.22526436797274832,"43":-0.03955768069048989,"44":-0.04355392152019006,"45":0.42006655194353143,"46":0.07962574629450266,"47":-0.06778537873552165,"48":-0.31392407916848153,"49":0.13872185055630445}},{"sx":1,"sy":1,"depth":50,"w":{"0":-0.2386959390995818,"1":0.07725858145607493,"2":-0.16476291824869377,"3":0.1870556801448418,"4":-0.04165215404625821,"5":-0.0010431786501528047,"6":-0.22570622223626746,"7":0.14348353080231166,"8":-0.1399393667885346,"9":0.10724915799349814,"10":0.052204566945569866,"11":0.0900152842723864,"12":0.08494845511202005,"13":-0.16292537891889336,"14":-0.4952306979323925,"15":0.10188510861718543,"16":-0.15572152287650518,"17":-0.25039082088279074,"18":0.11631553669794484,"19":0.14263963715909866,"20":-0.13230038246528286,"21":0.0693288135688118,"22":-0.25193328015474287,"23":0.17208702025386938,"24":-0.39243967420030795,"25":0.11948355353106305,"26":-0.3372505568712985,"27":0.03541618717969602,"28":0.102386047457484,"29":0.3207782381392276,"30":-0.09567624157294854,"31":-0.13715856917365246,"32":0.21475690206276118,"33":0.1825552081590521,"34":0.4265028948961569,"35":0.19768590540126182,"36":-0.1603653658595194,"37":-0.0535895597586831,"38":-0.00610216267654074,"39":-0.11438202990319996,"40":-0.1050377598006591,"41":-0.0629674471568284,"42":-0.1771973982599334,"43":-0.3470585683990251,"44":0.21305137276704356,"45":-0.07420840049123467,"46":0.25787266020516636,"47":0.12394495916373845,"48":0.35831771654067895,"49":-0.137164069097733}},{"sx":1,"sy":1,"depth":50,"w":{"0":0.038879064647248246,"1":0.005081324843456022,"2":-0.37209205889101604,"3":-0.044890836971905254,"4":-0.02736023948415729,"5":-0.2606767818437334,"6":0.4064987743640289,"7":-0.067679696344153,"8":0.3903824677901799,"9":-0.02266309666250254,"10":-0.09144873970077326,"11":-0.03514226045475986,"12":0.017047380454750734,"13":-0.3482398782132814,"14":0.2843962807861422,"15":-0.00961343591837782,"16":0.22320524337667672,"17":0.24347320862890912,"18":0.18107108763063234,"19":-0.2955995897185873,"20":-0.03011102119390635,"21":0.2441985109060106,"22":0.04988960710948995,"23":-0.19921616615549478,"24":0.13989733577559496,"25":0.07284216152840951,"26":-0.05625082483556935,"27":-0.18013593522849727,"28":-0.11871557752826765,"29":0.07156108314840547,"30":0.45080828354727914,"31":0.18563742293513746,"32":0.09326465794550241,"33":-0.09173016402444277,"34":-0.0423285002664716,"35":-0.01681582373446447,"36":0.009582682408036483,"37":-0.06448430041069879,"38":0.015901756308408035,"39":-0.14823885676141896,"40":0.27429920509037187,"41":0.08510580564514247,"42":-0.3152042750644951,"43":-0.04807742143968633,"44":0.07276349629786617,"45":-0.027228262302134234,"46":0.1767972475567523,"47":-0.03252697261875991,"48":0.041641822991690794,"49":-0.34581480447748614}},{"sx":1,"sy":1,"depth":50,"w":{"0":0.39865542973767565,"1":-0.05492060037987323,"2":0.1937837720981023,"3":-0.04257236293261817,"4":0.18222330270984763,"5":0.9338200426305142,"6":0.17983218286651445,"7":-0.05741836342518994,"8":0.3884525046722919,"9":0.3118867318013427,"10":-0.265000720944099,"11":-0.19517441432359645,"12":-1.2636609091368258,"13":0.08809825203679168,"14":-0.07978459943209157,"15":0.34028811547399135,"16":0.17511640142962503,"17":-0.5310281314798441,"18":0.6375183622794295,"19":0.02496691334922023,"20":-0.15587662050632206,"21":-0.5537801415103025,"22":-0.9834109238380753,"23":-0.37325179088033134,"24":-0.09629036208519928,"25":0.10417068300117856,"26":-0.01034831017824819,"27":0.1977427254853055,"28":-0.9721178141180046,"29":0.3602939796024999,"30":-0.14289817285460568,"31":0.060667870157313765,"32":0.10108831077671514,"33":-0.291899900354787,"34":0.7435598576341377,"35":-0.4502721547030323,"36":0.2172325769469326,"37":-0.29937970921008894,"38":-0.46587372998316917,"39":-0.11379656353308973,"40":0.181704875040047,"41":-0.07888488119336139,"42":-0.12286429923432828,"43":-0.4948001571349824,"44":0.7303102394816419,"45":1.080227642337703,"46":-0.06458792997546425,"47":-0.6450811069906465,"48":-0.3432465801719424,"49":0.26317145321579166}},{"sx":1,"sy":1,"depth":50,"w":{"0":0.06272487243016782,"1":-0.0672002638554801,"2":0.08648486892269164,"3":0.003752317637058315,"4":-0.028274907348149626,"5":0.12537505884342176,"6":0.03317225897663062,"7":-0.156374686267063,"8":-0.011492053492171665,"9":0.08888990737545639,"10":-0.3280237092549125,"11":-0.011995777363420055,"12":0.08203128809111282,"13":-0.1150138230729054,"14":-0.026214823070517538,"15":0.00850521525098541,"16":0.212221281705595,"17":-0.2177471406101389,"18":0.14478669208713585,"19":0.08012832432539507,"20":0.33134883032470674,"21":0.16444605800202503,"22":0.09688786598138921,"23":0.01019352609197446,"24":0.023259772596943173,"25":-0.04515061769334439,"26":-0.15053312966156876,"27":-0.08126243851071564,"28":-0.038390576901627144,"29":0.3218651507092001,"30":-0.33614940903932317,"31":0.14142840933042314,"32":-0.045088895464580586,"33":0.08681546151858582,"34":-0.002191261888163099,"35":0.05640429554629442,"36":0.11603369285200296,"37":0.22757243472377728,"38":-0.10016256045403227,"39":-0.08203501746038358,"40":-0.1659195545238408,"41":0.11002503138453158,"42":0.11189244719158781,"43":0.0816908921461507,"44":0.16400851426687832,"45":-0.29023214338893805,"46":-0.02820209243895023,"47":0.015051109614827144,"48":-0.23942607319037437,"49":-0.12019277503421355}},{"sx":1,"sy":1,"depth":50,"w":{"0":-0.06225406808408874,"1":-0.2296652582042826,"2":-0.04944411225324008,"3":-0.1692227995852035,"4":0.4111980573820638,"5":-0.1535137404468461,"6":0.29191218512824024,"7":-0.16755664614114377,"8":-0.1018418575811127,"9":0.028075455440001496,"10":0.1363834599109051,"11":0.0736982201257772,"12":0.040519868867532914,"13":-0.25720030030481,"14":0.19987960147388856,"15":-0.08534027147494681,"16":0.1379162805590842,"17":0.19233827085024063,"18":-0.1441488511812746,"19":0.045585995941791954,"20":-0.031212975552706725,"21":-0.027691737533189084,"22":-0.37126902360065495,"23":0.06885448499660568,"24":0.2665720034211768,"25":0.16822360968682398,"26":-0.058453812412262066,"27":0.039196945382019774,"28":0.23395834255613857,"29":-0.07919933281224731,"30":0.06919967437445548,"31":0.23907690156382483,"32":0.04201376481152978,"33":0.11091907251355995,"34":-0.05715858739440547,"35":-0.08381838933825345,"36":0.021649142965836345,"37":0.107963953640568,"38":0.13330481643775402,"39":0.0007674782741058189,"40":0.2164906619434085,"41":0.1380936558898765,"42":0.18466035665759,"43":0.1014731030469126,"44":0.227809372315735,"45":-0.03726813086767392,"46":-0.3584754990919692,"47":0.1312017169721256,"48":0.06134115187351404,"49":-0.10340693280040908}},{"sx":1,"sy":1,"depth":50,"w":{"0":0.08540893226229994,"1":0.2031025829047329,"2":0.19539916779824162,"3":0.0881857536845007,"4":-0.12158308974251067,"5":-0.04653446882370418,"6":0.159616195866005,"7":-0.020119682339468932,"8":0.09698848295786223,"9":-0.02928250769295343,"10":-0.0037100105576602684,"11":0.20650642823618312,"12":0.1325572596129596,"13":0.09843871981198822,"14":0.06997000508384751,"15":-0.24311771955474396,"16":-0.22382748227344001,"17":0.28228671240218,"18":0.3253925943470433,"19":0.1222782696231501,"20":0.004471043160330195,"21":-0.015630527321179265,"22":0.30238854193929976,"23":-0.031454129496619174,"24":0.28168769740752775,"25":-0.1673950588805612,"26":0.004675626904343421,"27":-0.02841336350178141,"28":-0.030255715036760035,"29":-0.0013066837099586918,"30":-0.1910245603823895,"31":-0.16933391617915725,"32":-0.019095426501964483,"33":0.010840507990786752,"34":-0.3303578355895998,"35":0.0517110964323319,"36":0.13906656204023551,"37":0.07777804509032074,"38":0.1548870144022328,"39":0.11210664407079213,"40":-0.06622230278739087,"41":0.07989860624577218,"42":0.03148162782083024,"43":0.032586608072593275,"44":0.09713182021990631,"45":-0.07537236527093001,"46":0.22210880709939823,"47":0.1780701771591322,"48":-0.2264748160622977,"49":-0.12509723321709032}},{"sx":1,"sy":1,"depth":50,"w":{"0":-0.2896337940449173,"1":-0.1426499912145863,"2":-0.024445349175106185,"3":0.19890645886467914,"4":0.21240518095994235,"5":0.0631534094107328,"6":0.16076086087252944,"7":0.03465859287981444,"8":-0.04990928489187892,"9":-0.010180860969249281,"10":-0.19620253698813395,"11":-0.24145137527580066,"12":0.09191865828964761,"13":0.008959763086173854,"14":0.0894534853615475,"15":0.14285254470302103,"16":-0.24894773781289942,"17":-0.03601638512247949,"18":0.23301974702731226,"19":-0.028716517115388862,"20":-0.03128244227875896,"21":0.16728107384296353,"22":-0.060628501502797,"23":0.09776368306103501,"24":0.03784149604833413,"25":0.1657902119727933,"26":-0.189136919928961,"27":0.29741371169759984,"28":-0.013081187188700237,"29":-0.09899932608682432,"30":0.129877271827229,"31":0.232621975357281,"32":-0.020493916063771628,"33":0.026787919568163204,"34":0.17954911677289023,"35":-0.23987230612944727,"36":0.07824867994488371,"37":0.11552762720508723,"38":-0.12366488584905275,"39":-0.3146144577462478,"40":0.2005154236463521,"41":0.13403627757346517,"42":-0.21014645638048893,"43":-0.08107072998795443,"44":0.43245443869786454,"45":-0.03017132040676274,"46":-0.27564142254792234,"47":0.06315945817998578,"48":0.3281641492474306,"49":-0.3851900272782889}},{"sx":1,"sy":1,"depth":50,"w":{"0":0.24498382457337217,"1":-0.06992368316577682,"2":-0.06557709332715667,"3":0.10148723863697709,"4":-0.4109541531833557,"5":-0.013100466588792591,"6":0.34879618308923416,"7":0.1895796775075244,"8":0.037549692954708905,"9":-0.2550341340895977,"10":0.2172359094804206,"11":0.2714645851344662,"12":-0.019777238639092688,"13":0.1935944680852662,"14":0.1735142795983369,"15":0.12496439257892038,"16":0.14245145424449263,"17":0.23616422434717282,"18":0.10842054881271583,"19":-0.35876672707326956,"20":0.09849379325597765,"21":-0.1394343640880606,"22":-1.118719752493218,"23":-0.612730265207014,"24":0.9861083617129164,"25":0.029286531079152606,"26":0.2702630805829313,"27":-0.37196420303011796,"28":0.7884814749141245,"29":-1.2888660833238672,"30":0.5637545040892076,"31":0.171420602260387,"32":-0.20298801013521597,"33":-0.3956404462618199,"34":-0.02549535638515487,"35":-0.16630294599485554,"36":0.18718326260972887,"37":-0.14792044236446694,"38":0.30779561907012837,"39":0.1809737309690055,"40":-0.1467649289382429,"41":-0.012855301857065939,"42":0.12416675403552081,"43":0.27308239951495644,"44":0.07498009022891859,"45":0.37424990991852414,"46":0.6784892976411406,"47":-0.0463851764658466,"48":-0.10081269074672826,"49":0.044007081023070174}},{"sx":1,"sy":1,"depth":50,"w":{"0":0.2095336382590378,"1":0.18521524718741433,"2":0.07728793962971743,"3":-0.1285713606536329,"4":0.08299325901169508,"5":0.18398937948457944,"6":0.2073862396459256,"7":0.07576396806072545,"8":-0.04336742752537192,"9":0.16435442999430602,"10":-0.005098508423616306,"11":0.1353023640824274,"12":-0.19429164692750905,"13":0.16791574744561397,"14":0.04125565196097821,"15":-0.013179521743569868,"16":-0.010061107064257056,"17":-0.04324417807807076,"18":-0.2772932467389248,"19":0.0668887870550567,"20":-0.1266605579883147,"21":-0.07642755339492653,"22":0.18862390806564713,"23":0.09905787473453065,"24":0.3647973830860932,"25":-0.03549978462746931,"26":0.23458832588328482,"27":0.0004556765239842025,"28":0.06938119589403108,"29":-0.10298447090183487,"30":0.11375177459933787,"31":0.23990229175623087,"32":-0.07242890035427632,"33":-0.17179976825778004,"34":0.07862340015128769,"35":0.05476194028723384,"36":0.09023870635331115,"37":-0.02683415112190196,"38":-0.134705965084593,"39":0.2650364353141313,"40":-0.11552834082433969,"41":-0.1349002150712331,"42":-0.004888563252897459,"43":0.30887326147223315,"44":0.07026770137482966,"45":0.17086338030458573,"46":0.042571177548309865,"47":-0.12519913321385556,"48":-0.031944235275853286,"49":0.22609851863920574}}],"biases":{"sx":1,"sy":1,"depth":50,"w":{"0":0.1,"1":0.10393477258550887,"2":0.1073443584779288,"3":0.10896861566854134,"4":0.09330470017875887,"5":0.08710919862554735,"6":0.1264308615472782,"7":0.10938507258385115,"8":0.11028113891933168,"9":0.11855882399764298,"10":0.09130946217188468,"11":0.10645751657356818,"12":0.13947929493614786,"13":0.0943762563627009,"14":0.08725702850798622,"15":0.10055908337747184,"16":0.049117204295234126,"17":0.11592175245720564,"18":0.08292692376416982,"19":0.09213944788114889,"20":0.10310646258312349,"21":0.07711111683035307,"22":0.09893048313359597,"23":0.09727046670808538,"24":0.10071577781599374,"25":0.10298940689727687,"26":0.12615092699895708,"27":0.0958465379305332,"28":0.0842792197699832,"29":0.10589202319729683,"30":0.0973030590794841,"31":0.10992165859606536,"32":0.15896310889142323,"33":0.09002144015234198,"34":0.10593944141471298,"35":0.09916710664811064,"36":0.10181706113490913,"37":0.089116483067289,"38":0.10336855487475162,"39":0.1,"40":0.10391276279337104,"41":0.12151529610976428,"42":0.1278125279745849,"43":0.15682626519043416,"44":0.10281086235739902,"45":0.10674211603851706,"46":0.11724081547835215,"47":0.12007844423529937,"48":0.12039968684047084,"49":0.0832809900846731}}},{"out_depth":50,"out_sx":1,"out_sy":1,"layer_type":"relu"},{"out_depth":3,"out_sx":1,"out_sy":1,"layer_type":"fc","num_inputs":50,"l1_decay_mul":0,"l2_decay_mul":1,"filters":[{"sx":1,"sy":1,"depth":50,"w":{"0":-0.23789254015998676,"1":-0.2517917465733356,"2":-0.07399235845985833,"3":-0.010665596771610908,"4":0.14497365752453276,"5":-0.19072378687629127,"6":0.14591175452677183,"7":-0.15747342501654163,"8":0.11566459438663428,"9":0.3730589301777419,"10":0.20693490783896656,"11":0.2884915342963045,"12":0.6242819714885928,"13":0.0973203470785105,"14":-0.2903692376321359,"15":0.02923350582499407,"16":-0.022325733703762243,"17":-0.47674071521645567,"18":-0.7926259503674429,"19":-0.0036660050113561026,"20":-0.2981281734627892,"21":0.13295300655460077,"22":-0.3299758620317812,"23":-0.4634895190068168,"24":0.09857522366720997,"25":-0.21362274755568278,"26":-0.1353375290833483,"27":0.47075859602083264,"28":-0.3667007357124123,"29":0.06083503636894559,"30":-2.8967879384740596,"31":-0.11431369697126838,"32":0.4744344531051027,"33":-0.20211144948791715,"34":0.45197040620305834,"35":0.12902908285742554,"36":-0.22450751462744742,"37":0.20194594953336653,"38":0.2733199634318199,"39":0.11101385050182677,"40":-0.3043222179506583,"41":0.015415534956551864,"42":0.6649060121298624,"43":0.07040396028508786,"44":0.31020850100270925,"45":0.45838370265756145,"46":-0.17927006884189536,"47":0.6549266192974877,"48":-0.09384632330310869,"49":-0.30957446141231565}},{"sx":1,"sy":1,"depth":50,"w":{"0":0.0013901603837546213,"1":0.15991294789971522,"2":-0.23555699118285064,"3":0.1094090791559109,"4":-0.22866555565502145,"5":0.11827234497074147,"6":0.5943872258320164,"7":0.40836361867466514,"8":-0.31400379994683725,"9":0.4055282637805841,"10":0.3156046907376911,"11":0.5362569211474559,"12":-0.0422014939786862,"13":-0.22275603129682991,"14":-0.03490347588418014,"15":0.04766812370731667,"16":0.018299328469488004,"17":-0.3387556995544857,"18":0.15270075599533753,"19":0.13894109120239342,"20":-0.3914293448778658,"21":-0.27297037150621645,"22":0.06027410807528284,"23":-0.25601624206198653,"24":0.06315111398918016,"25":-0.38059990832156837,"26":-0.6682983265462864,"27":-0.07197135639849447,"28":-0.6632186847041159,"29":0.4397614961984044,"30":-0.05835440651552454,"31":0.060993522627888395,"32":0.5215216291921919,"33":0.2002367079909362,"34":-0.41195765789657257,"35":0.2150413991440028,"36":-0.22817579356708398,"37":0.056315686581962655,"38":0.10241772896442237,"39":0.08405283761881159,"40":0.458202515350974,"41":-0.38818829729151416,"42":0.43374911365518876,"43":-2.9476081539408625,"44":-0.1188196318465146,"45":-0.019536600224669597,"46":0.42121875988384966,"47":-0.12804739752472827,"48":-0.1017317398484236,"49":-0.05618130020796522}},{"sx":1,"sy":1,"depth":50,"w":{"0":-0.024491568397706488,"1":0.11098348178536456,"2":0.07802863824024615,"3":0.33470471309192323,"4":-0.15915557792633658,"5":0.08321420202794878,"6":0.4843344846016016,"7":0.3080155441956968,"8":0.18099001134711912,"9":0.2879020062921404,"10":-0.47809783185702787,"11":-0.04229327565802266,"12":0.36840114678581243,"13":0.050611480294748316,"14":-0.10391896884142493,"15":0.1026898327075746,"16":-1.4342764187207937,"17":0.35314999046418816,"18":-0.06544296496738364,"19":-0.0220214207290634,"20":-0.7050464751737832,"21":-0.2115210334641252,"22":0.03571508729115576,"23":-0.5495799081591083,"24":0.2660664628035951,"25":0.42990829914534373,"26":0.1594865356947309,"27":-0.10025395927492547,"28":0.23460435430059792,"29":-0.19811665461865538,"30":-0.06399677968811207,"31":0.30530362695189733,"32":0.6044538054145073,"33":-0.18883315929733133,"34":0.29417008091686103,"35":-0.18354359105153267,"36":0.4144450097850943,"37":0.11591820412081506,"38":0.01815482935799957,"39":-0.1948227024004702,"40":0.12260608680107662,"41":0.8841089463655748,"42":-0.32988233320305893,"43":-0.12594787285988024,"44":-0.29368049569416294,"45":-0.476409399032388,"46":-0.230489555090795,"47":0.09758815616871123,"48":-2.5375454635297574,"49":-0.39570643557427265}}],"biases":{"sx":1,"sy":1,"depth":3,"w":{"0":0.05737178629279765,"1":0.026258778631630317,"2":-0.017297453586779088}}},{"out_depth":3,"out_sx":1,"out_sy":1,"layer_type":"regression","num_inputs":3}]}'