const ai02='{"layers":[{"out_depth":21,"out_sx":1,"out_sy":1,"layer_type":"input"},{"out_depth":50,"out_sx":1,"out_sy":1,"layer_type":"fc","num_inputs":21,"l1_decay_mul":0,"l2_decay_mul":1,"filters":[{"sx":1,"sy":1,"depth":21,"w":{"0":0.12441259921697018,"1":0.15750392947765252,"2":-0.28489421313556823,"3":-0.20174583748028369,"4":0.03470001691307418,"5":0.11789267347336539,"6":0.6559249753302551,"7":-0.19792608098811904,"8":-0.015364418250265542,"9":0.23298586061166654,"10":-0.15842816933148368,"11":-0.5334187275301197,"12":0.058453342342556114,"13":-0.06409211078701081,"14":-0.1844817347838196,"15":-0.3431145695806109,"16":-0.1187479095951525,"17":-0.14195228347253733,"18":-0.12166251869104333,"19":-0.13675911750574804,"20":0.2215832999059542}},{"sx":1,"sy":1,"depth":21,"w":{"0":-0.0903833881043056,"1":0.07992985454018821,"2":0.0936366499949238,"3":-0.7049385031745803,"4":0.4559194206068635,"5":-0.11274543322695421,"6":0.028121520383286525,"7":-0.13166600227685166,"8":0.0809323294723758,"9":0.045432037264148385,"10":0.11809498695788039,"11":0.25750345400180313,"12":0.4069212202472292,"13":0.15675067371887594,"14":0.007676215075437208,"15":0.32621933832775823,"16":0.28191390671976585,"17":-0.14482714144998987,"18":0.17740090533663658,"19":-0.0797288876853546,"20":-0.286752789778103}},{"sx":1,"sy":1,"depth":21,"w":{"0":0.11220586892796823,"1":-0.03684356644092158,"2":0.15686264407829437,"3":-0.29478326961313733,"4":-0.17757007403982106,"5":0.4995363279529502,"6":-0.13011241373951798,"7":0.30598505336829696,"8":-0.14505417083016778,"9":0.06892061966044717,"10":0.2590765163516531,"11":0.17732713570906414,"12":-0.08969270881607062,"13":-0.028378870829471815,"14":-0.3360692386518532,"15":0.05900196308281651,"16":0.5064581596097807,"17":0.5190495581372516,"18":-0.35432588635897644,"19":-0.43775953223088326,"20":0.06425673136750719}},{"sx":1,"sy":1,"depth":21,"w":{"0":0.49878571034744457,"1":0.14246449507746953,"2":-0.00902070847379704,"3":-0.3117290898641848,"4":-0.02894119689501617,"5":0.25668288418047347,"6":-0.014346715621118564,"7":-0.378300653211689,"8":-0.044260004268862355,"9":0.17950757515705162,"10":0.008501271295550264,"11":0.141993576758676,"12":-0.21153717332199148,"13":-0.069082582886219,"14":0.19817200785872544,"15":0.16419287947028255,"16":0.20012809761529451,"17":0.07230700822038506,"18":-0.19059009985216618,"19":0.11046872260876996,"20":-0.23876888405229735}},{"sx":1,"sy":1,"depth":21,"w":{"0":0.009418643531606263,"1":-0.11125581115463747,"2":-0.0751447289342389,"3":-2.2440813120102945,"4":-0.11735957650181043,"5":0.044911598424164756,"6":0.08456773445448532,"7":0.07332323638818075,"8":0.17489316127753415,"9":-0.30458943753039314,"10":0.10161770739675668,"11":0.165742458856478,"12":0.10125996577367784,"13":0.25953353708090976,"14":0.2594442082026084,"15":-0.28310432159890725,"16":-0.1961704607236239,"17":-0.10806008459846254,"18":-0.2853515896450818,"19":-0.022270621921280036,"20":0.058192938169859494}},{"sx":1,"sy":1,"depth":21,"w":{"0":0.2184954583784508,"1":0.06747810721940636,"2":0.171780907762834,"3":0.027278334564265136,"4":0.4198190217444174,"5":-0.05935149897229269,"6":-0.4573407383758461,"7":0.29216676649290363,"8":-0.24595365200135577,"9":-0.13240981822373143,"10":0.13591536477893187,"11":-0.12703739177046547,"12":-0.23774500078784253,"13":-0.023858285293789836,"14":-0.09550187511528431,"15":-0.18847998348609002,"16":-0.17187085757220877,"17":0.16010114197267478,"18":0.08867637724018414,"19":0.009448095791159274,"20":-0.2982387776334352}},{"sx":1,"sy":1,"depth":21,"w":{"0":0.5777352787531757,"1":0.011368621742300716,"2":0.005746714049494025,"3":0.06975042413628095,"4":-0.2896420686270534,"5":-0.24444181641194085,"6":-0.2978511928308328,"7":0.14188249762869748,"8":0.21723459924837196,"9":0.12987600093667429,"10":0.3362865350513174,"11":0.16151045654656895,"12":0.29604766046895153,"13":0.3170144361256765,"14":0.08193925996094654,"15":-0.0772413851461382,"16":0.18587734834502118,"17":0.2966050144286451,"18":0.05188040946681481,"19":-0.10043922996360569,"20":-0.44825320526099505}},{"sx":1,"sy":1,"depth":21,"w":{"0":0.9533314649529491,"1":-0.03245873267606869,"2":0.13592806139887445,"3":0.8259517746168126,"4":-0.1303402591572051,"5":0.46708167492392644,"6":-0.7589181076682178,"7":0.2194002940630625,"8":0.23342833909813618,"9":-0.03763799697510991,"10":-0.012678967037279547,"11":0.207325400145743,"12":-0.15519920106269217,"13":-0.2186618420604598,"14":0.20695341655341892,"15":0.24410959370233837,"16":0.21121584622049094,"17":-0.04927868754126695,"18":-0.09983050788790772,"19":0.07614064607724091,"20":0.03420508145827364}},{"sx":1,"sy":1,"depth":21,"w":{"0":0.47225337719758903,"1":-0.016161278242189724,"2":0.23122064668847966,"3":-0.2389074761727761,"4":-0.13592219421319554,"5":0.16287804320436114,"6":0.175851982991948,"7":-0.2133386010723163,"8":-0.00151534155927712,"9":0.13408108146810974,"10":0.3839967892643068,"11":0.16260567059820488,"12":0.12541729152052497,"13":-0.15133872533835963,"14":-0.4127843244972774,"15":0.05757938463117396,"16":0.12855949371510925,"17":-0.3821698427774556,"18":0.23922552566410565,"19":-0.22831065327065606,"20":-0.20827283580448777}},{"sx":1,"sy":1,"depth":21,"w":{"0":-0.3423896503808634,"1":0.03887748450786892,"2":-0.28180216495038557,"3":-0.09937690984512555,"4":-0.11322983917132312,"5":0.10429211655570927,"6":0.05156191938406088,"7":0.15179924714915902,"8":0.03050970989805396,"9":-0.007776724884376873,"10":0.14844537607868946,"11":0.06908306568239372,"12":-0.14480943980027325,"13":0.26835471203435884,"14":-0.03475798404541023,"15":-0.008766135419031955,"16":0.1043812837381316,"17":0.07927480076604089,"18":-0.01343789229396975,"19":0.2777333537738634,"20":0.18973183358383652}},{"sx":1,"sy":1,"depth":21,"w":{"0":1.049628062344908,"1":-0.2165274582308615,"2":-0.11959413983069205,"3":-0.05725876607448697,"4":-0.10215996114428391,"5":-0.05804120514712246,"6":0.06999760106268198,"7":0.6768323645812285,"8":0.2145093762618036,"9":-0.34450508204899066,"10":-0.2164843093937235,"11":0.4960985004720313,"12":-0.03725260321782265,"13":-0.13792357884376882,"14":-0.3064210301029303,"15":0.10633507618634051,"16":0.08182852200534384,"17":-0.198353083124141,"18":0.006716219578640805,"19":0.05355563007598608,"20":-0.16114665416427}},{"sx":1,"sy":1,"depth":21,"w":{"0":0.2804164955286179,"1":0.06956933960230853,"2":0.15902555265956964,"3":-0.058553623535305487,"4":0.11735552922111818,"5":-0.10349545818994453,"6":-0.0581225182902624,"7":-0.39305544732989306,"8":-0.092547599164677,"9":-0.3235138855635229,"10":0.152506029103905,"11":-0.270993340719282,"12":0.2549164382731165,"13":-0.12867493572623154,"14":-0.23166568015452296,"15":0.10266711515401304,"16":-0.16068929240498428,"17":-0.2869684824678684,"18":0.011551727073838959,"19":0.363612921910331,"20":-0.010200560695072481}},{"sx":1,"sy":1,"depth":21,"w":{"0":-0.41632081215175626,"1":0.16725055785737916,"2":-0.027059632992711063,"3":-0.2776320338397238,"4":0.039452311787038674,"5":-0.07943267013971932,"6":0.7813639294467678,"7":0.194691643969354,"8":-0.2158308627259771,"9":-0.1181281570823581,"10":0.01750815676215319,"11":-0.22735686410905628,"12":-0.3601892343547369,"13":-0.3132217130424523,"14":0.30900510120265146,"15":0.03253352063265913,"16":-0.005018378346397486,"17":0.03808177838338349,"18":0.30920361856582734,"19":-0.13101355198665002,"20":0.1290194650154636}},{"sx":1,"sy":1,"depth":21,"w":{"0":-0.029750684303211906,"1":-0.2742195041986707,"2":-0.07945059365429456,"3":0.5092229590744941,"4":0.3834354522124014,"5":-0.16507717549379947,"6":-0.24737734808381423,"7":0.1250983859039173,"8":0.10649710362664741,"9":-0.10696724132599314,"10":-0.05534686224307128,"11":-0.5645730042814926,"12":-0.020317652265421298,"13":0.01940358780084508,"14":0.08894516594992681,"15":-0.2708576528744662,"16":-0.13922742096517438,"17":-0.1475756155664093,"18":0.15355526909208986,"19":-0.033577655254755714,"20":-0.06663662937094288}},{"sx":1,"sy":1,"depth":21,"w":{"0":-0.8277914142407681,"1":0.9664667248410415,"2":-0.06390988285342676,"3":-0.05591332185095446,"4":0.11563521350463557,"5":-0.0823952621686198,"6":0.7904477559420695,"7":-0.48147042358709674,"8":0.04960029494454917,"9":0.139909020598285,"10":-0.09978122835268513,"11":-0.17986568162956088,"12":-0.024248356156631495,"13":0.2591754244909462,"14":-0.010183019721030468,"15":0.008594225499288864,"16":0.076152412272701,"17":-0.16081728658266756,"18":-0.20066109922563852,"19":0.09346888457028323,"20":0.10945037733404629}},{"sx":1,"sy":1,"depth":21,"w":{"0":0.9888241936497896,"1":-0.5312546367455561,"2":0.19480272921598274,"3":-0.2314556819364217,"4":0.11812577506392291,"5":-0.06555988127572572,"6":-0.8799740708480098,"7":0.3586344708427446,"8":0.1832547711083855,"9":0.05016550129747035,"10":-0.19931788554604335,"11":-0.05876038575432226,"12":-0.14592186130648668,"13":0.2780141813608938,"14":0.07167287088297924,"15":0.018510536213450043,"16":-0.22692015765073534,"17":0.22690494091722882,"18":0.10988149333944573,"19":0.09837579103691885,"20":0.25040335089938986}},{"sx":1,"sy":1,"depth":21,"w":{"0":-0.7213043930768248,"1":-0.2300863571606436,"2":0.02079164163622624,"3":0.14562315935083148,"4":0.022780206473169442,"5":-0.07701573588106718,"6":1.445413438754122,"7":-0.3520503785576754,"8":0.11820832950799269,"9":0.17384134129336734,"10":-0.18634234844440495,"11":-0.18013561332438846,"12":-0.06617140357986535,"13":0.32212196062654624,"14":-0.07243670863916396,"15":0.37984422711352767,"16":-0.015434412180747275,"17":0.2714936211911994,"18":0.0615975792079958,"19":0.1931979474613307,"20":0.0782811310648495}},{"sx":1,"sy":1,"depth":21,"w":{"0":0.9632672743508015,"1":-0.485609811981216,"2":-0.17162226020541244,"3":-0.01671438777387751,"4":0.04071131898416306,"5":0.36369411587298917,"6":0.005667574825770282,"7":0.13162496371693677,"8":-0.21857048893178743,"9":0.3279773171711473,"10":-0.10977147348701652,"11":-0.36105752648975814,"12":-0.20063026041790855,"13":-0.03112825913856,"14":-0.06574893121055896,"15":-0.1036803100428155,"16":-0.011448009518003444,"17":0.1597379567965426,"18":0.09850801137369354,"19":0.08775837336867562,"20":-0.13391060323341442}},{"sx":1,"sy":1,"depth":21,"w":{"0":-0.15324236660136792,"1":0.09518755940123173,"2":0.11270867959968019,"3":0.6158780361959821,"4":0.4000186645659867,"5":-0.3724301595435851,"6":0.26087938608285266,"7":-0.35064783378935765,"8":0.047771687310758544,"9":0.09782013785196077,"10":-0.07608351968096476,"11":-0.12334756073547168,"12":0.11476262835031198,"13":0.0561495726305036,"14":-0.23276623552850834,"15":0.10885234504536712,"16":-0.13688061630903747,"17":0.010685154735369937,"18":-0.10336962591095998,"19":0.16303906420208752,"20":0.01633530186757123}},{"sx":1,"sy":1,"depth":21,"w":{"0":-1.2243935521020253,"1":-0.0423603177402115,"2":0.2152302237500915,"3":-0.365522669645115,"4":0.5521816215456229,"5":0.006330625483519787,"6":-0.06986309070911825,"7":0.5002903025644891,"8":-0.14958683753183746,"9":0.013701216990265169,"10":0.15559099188732975,"11":0.02359945135286181,"12":0.28045576759684493,"13":-0.15833636167304843,"14":-0.1416416496315717,"15":-0.3399445718826876,"16":0.0670653855834056,"17":-0.06407742512142581,"18":0.2119316930663142,"19":0.12842475880360507,"20":0.15768393263760466}},{"sx":1,"sy":1,"depth":21,"w":{"0":0.09275596077357359,"1":0.16173051673839786,"2":-0.3313871323941516,"3":-0.7291775726437479,"4":-0.2123370278052815,"5":0.06187352105250418,"6":0.08325788647686237,"7":-0.10199175398638492,"8":0.1285197682940144,"9":-0.14770242878241943,"10":-0.318497511303545,"11":0.13260443895587948,"12":-0.04467204624262414,"13":-0.28393970617620007,"14":-0.03352544155943086,"15":-0.01092857380377343,"16":0.1388862206421002,"17":0.2149706446834816,"18":-0.08274879037397805,"19":0.34680923248411244,"20":-0.3898235381729363}},{"sx":1,"sy":1,"depth":21,"w":{"0":0.5049512802010591,"1":-0.3987076199431904,"2":0.3455499519833441,"3":0.15875007891899437,"4":-0.9483101463176616,"5":0.46072289619818424,"6":-0.012384687686158248,"7":-0.34468381492480255,"8":-0.1863474871633922,"9":0.07548028770446089,"10":-0.03975625178768899,"11":-0.43878403448207254,"12":0.27491169774224705,"13":0.04981833556498393,"14":-0.08624746911603148,"15":0.008811554041772217,"16":0.2036938577716251,"17":0.08852731435134999,"18":0.17127148980549184,"19":0.0597859705576524,"20":0.2962868251333563}},{"sx":1,"sy":1,"depth":21,"w":{"0":0.31968841688848365,"1":-1.228199446969511,"2":0.1800629174211495,"3":0.05515350020859349,"4":-0.3376100948101863,"5":0.11557504734423203,"6":1.0644682475862395,"7":-0.577521858379317,"8":-0.17211381779397375,"9":-0.11483327184413915,"10":-0.025580820043968666,"11":0.08886929644853693,"12":-0.17464156115458287,"13":-0.15502578982567838,"14":0.016010373880702054,"15":0.15415058107792814,"16":0.1380764757934018,"17":0.049268673994362217,"18":0.19818742233542608,"19":0.23629494731719644,"20":0.16274315837698705}},{"sx":1,"sy":1,"depth":21,"w":{"0":-0.6027317166367078,"1":0.7416492092581811,"2":-0.18797132529936592,"3":0.49286408604082055,"4":-0.23589087249565108,"5":0.003170902481583807,"6":-0.23939232059858773,"7":-0.4752569989979866,"8":0.09734844794756148,"9":-0.10751490509583143,"10":-0.06418465634152105,"11":0.1197376411939793,"12":-0.2737765798597711,"13":-0.15214111572277197,"14":0.19148384629116283,"15":0.36950322228263843,"16":0.3238712298869072,"17":0.14956855336395972,"18":0.09092650997196688,"19":0.08079855628732541,"20":-0.389763246735541}},{"sx":1,"sy":1,"depth":21,"w":{"0":-0.04023821219719413,"1":-0.03629035963931577,"2":-0.07692555690117785,"3":0.24582944812058358,"4":-0.2536024837948116,"5":-0.03075684010594128,"6":-0.021163215958957562,"7":-0.24986625006255925,"8":0.400327759672018,"9":-0.212694676660938,"10":-0.0655158402071693,"11":0.1705803432172201,"12":0.1076995582836337,"13":-0.11929172879713341,"14":-0.22934100153152925,"15":0.28709319329602045,"16":-0.2845330016328705,"17":-0.3018983195135918,"18":0.12573327405552778,"19":-0.03212467418591327,"20":-0.09857884731845937}},{"sx":1,"sy":1,"depth":21,"w":{"0":0.24474700317661646,"1":-0.1265076804720975,"2":-0.007557247284232271,"3":-0.047906788545521564,"4":0.17974495237025628,"5":-0.13275012440760167,"6":-0.031744334250679566,"7":-0.7631954588978881,"8":0.17015553272408435,"9":-0.0037424401807827435,"10":-0.3329770011282642,"11":-0.05111315533859094,"12":0.21712027125946023,"13":0.212006113965881,"14":-0.02559716920142481,"15":-0.053874938032166565,"16":0.030259770945276505,"17":0.04397264112292646,"18":0.06403313512011093,"19":0.09433765949647574,"20":-0.2478501905979387}},{"sx":1,"sy":1,"depth":21,"w":{"0":-0.2506712528674855,"1":0.4772298021391466,"2":0.1789062799262319,"3":0.296634145749999,"4":-0.562483884714433,"5":-0.12487916777706595,"6":0.4904694333635078,"7":-0.15580104218840127,"8":0.025179167264641217,"9":-0.4399736883710881,"10":0.02662607354737042,"11":-0.22001629889405955,"12":0.19943838986946655,"13":-0.19522219770800073,"14":0.10486870321393693,"15":-0.03720049266705343,"16":0.25321247411959086,"17":-0.268926081767594,"18":0.10371108521751593,"19":-0.15029306149624402,"20":0.1780790425936353}},{"sx":1,"sy":1,"depth":21,"w":{"0":-0.34579716789856374,"1":0.031550764658838916,"2":0.146814858936926,"3":-0.10909345162710324,"4":-0.08734035614431579,"5":0.07362393761372571,"6":0.1731077975281021,"7":-0.14706199108437626,"8":0.13254188678385415,"9":0.23399247509874876,"10":-0.0463225066757689,"11":-0.056458833759601174,"12":-0.6006891690659485,"13":-0.020762062430590544,"14":-0.13617221117265801,"15":-0.32684413604112933,"16":0.08028276775012422,"17":-0.10267551122567994,"18":0.2580175748472086,"19":-0.05592960317405486,"20":-0.2822043272489909}},{"sx":1,"sy":1,"depth":21,"w":{"0":-0.9136345027144598,"1":0.22856062383405099,"2":-0.08690614962543591,"3":0.3278316878311487,"4":-0.3456022076393359,"5":-0.3700156736889126,"6":-0.597879595822014,"7":0.24381311736253686,"8":-0.20716205108789604,"9":0.479597313398939,"10":-0.39065890220800664,"11":-0.08668112565707395,"12":0.08984299735710927,"13":-0.2066092244842383,"14":-0.228895231134119,"15":-0.2252782058928507,"16":-0.10307482298904512,"17":0.20285649151695867,"18":0.2925292598943058,"19":-0.004851895649745498,"20":0.20917212870470697}},{"sx":1,"sy":1,"depth":21,"w":{"0":-0.5704499808423947,"1":0.37016998308104376,"2":-0.014279658451843062,"3":-0.09824527603545305,"4":-0.1231974138909417,"5":-0.2973462219107817,"6":0.2249959175101067,"7":-0.06122168014801561,"8":0.056011179123955916,"9":0.3233226160333355,"10":-0.25574419872385307,"11":0.16480990809703683,"12":-0.21905208417701866,"13":-0.11589525798520914,"14":0.21669323268220922,"15":-0.2973718067521283,"16":0.2579703246848324,"17":0.17586595588389045,"18":-0.2624700561584106,"19":-0.18360683484329113,"20":0.13297128531439012}},{"sx":1,"sy":1,"depth":21,"w":{"0":-0.1991195702011278,"1":-0.2671381889942349,"2":0.25671187400303147,"3":0.01857419909049738,"4":0.3044161767380773,"5":0.195975781804114,"6":-0.8387923076667412,"7":-0.17358492840306602,"8":0.46445693920369907,"9":-0.194259135922342,"10":0.24557818272296464,"11":0.025236101040827647,"12":0.037687391672975586,"13":-0.16208103191619033,"14":0.5345618742927927,"15":0.2911019965185892,"16":0.12335293093933794,"17":0.04680135144369512,"18":0.13290710164620212,"19":-0.03510459360576133,"20":0.08314078401866717}},{"sx":1,"sy":1,"depth":21,"w":{"0":-0.23878294773528605,"1":-0.275549852379293,"2":0.35027441124059977,"3":-0.12767902295817746,"4":-0.26753199128642374,"5":-0.18410301776246107,"6":0.13942184231703333,"7":-0.24306493860347958,"8":-0.3011123222660389,"9":-0.2635834837161727,"10":-0.03980019830163117,"11":0.16834225295329355,"12":0.12726370132276174,"13":-0.24568078142764035,"14":-0.07668491509420865,"15":-0.22324502839534444,"16":-0.002919495138351697,"17":0.2769377992367168,"18":-0.3944794868799178,"19":0.0438640141835653,"20":-0.07597271862222336}},{"sx":1,"sy":1,"depth":21,"w":{"0":1.0017338609655972,"1":0.4271796716445683,"2":0.03179663684666142,"3":-0.6268698839224103,"4":0.310794436563265,"5":0.03249438217031634,"6":0.6297715424718335,"7":-0.5739801939912809,"8":0.03089460103941783,"9":0.11746646461060052,"10":-0.10396570772790359,"11":-0.04299771771935621,"12":0.03877651101404228,"13":-0.13856993955643276,"14":0.05086658410822723,"15":0.16568369317833084,"16":0.09658406237194068,"17":0.4395971390472179,"18":0.0840340135993292,"19":-0.0248950264197997,"20":-0.008075082716387148}},{"sx":1,"sy":1,"depth":21,"w":{"0":0.8984410203336077,"1":-0.24055268426447063,"2":-0.023143651309798768,"3":0.48076797930395615,"4":0.11086835340821173,"5":-0.0011841761442013632,"6":2.210180056970104,"7":-0.8043353774266899,"8":0.3712190562589697,"9":-0.16783288382138437,"10":0.18553573578370677,"11":0.08629788566737519,"12":0.02763347328088061,"13":-0.2149188233400993,"14":0.202600840281871,"15":-0.17669502800006356,"16":0.02940417475508462,"17":0.32483684860662354,"18":-0.040619919284176235,"19":-0.060235745282936175,"20":-0.05000314178699298}},{"sx":1,"sy":1,"depth":21,"w":{"0":-0.21711178002962944,"1":0.08553470982519104,"2":0.1279032582626598,"3":-3.425195129226222,"4":-0.19679773739752582,"5":0.0889096599761301,"6":-0.011537823782239226,"7":-0.006064898142947645,"8":0.3824269605011815,"9":-0.04272784633572716,"10":-0.018150012107790815,"11":-0.06128322627852201,"12":-0.22600182810621278,"13":-0.1821271211162373,"14":0.23616645344958576,"15":0.005172230650960504,"16":-0.006726310472609024,"17":-0.18138419398689393,"18":0.12319588816344064,"19":0.14124737046083463,"20":-0.06793251688067735}},{"sx":1,"sy":1,"depth":21,"w":{"0":0.21223165347446155,"1":-0.07606129269376376,"2":0.32344163647181895,"3":0.10067646347673695,"4":-0.3894410897855444,"5":-0.3212315607541466,"6":-0.8755385661165525,"7":0.11096129901628972,"8":-0.318528969553116,"9":-0.6006841720745081,"10":-0.15863779377916415,"11":0.09338956325750702,"12":0.13288734050710166,"13":-0.0345929961390035,"14":0.37221828727220857,"15":-0.2492019985484971,"16":-0.16852981360890834,"17":0.2643457115334073,"18":0.13073842462174004,"19":0.18213197231152667,"20":-0.05788228519811075}},{"sx":1,"sy":1,"depth":21,"w":{"0":0.286482778058744,"1":-0.3809130323471177,"2":-0.050318086430776225,"3":-0.12853579807570106,"4":-0.0836404731435391,"5":0.04711881910888601,"6":-0.10740554620591568,"7":0.1382408087003455,"8":-0.06371717286541141,"9":0.02069146386121325,"10":0.20669546283967283,"11":0.29764366551342547,"12":0.44562256253918664,"13":-0.374923941233627,"14":0.25597593453092465,"15":-0.24701452762928236,"16":-0.31389356075812064,"17":0.040434783630710056,"18":-0.36934818599755603,"19":-0.003632246965608301,"20":0.10270278209730994}},{"sx":1,"sy":1,"depth":21,"w":{"0":-0.10335025167836584,"1":0.14093118077060976,"2":0.28646846986325153,"3":-0.2743028873790597,"4":-0.08705474231958069,"5":-0.03595396200319173,"6":0.3771848939134222,"7":-0.3131002267879941,"8":0.2949083147371699,"9":0.2625976261650477,"10":0.48285076041475594,"11":-0.18431285064358366,"12":0.05270362137570396,"13":0.003955306745636728,"14":-0.6033626124554772,"15":-0.006850266415573602,"16":0.209564734929495,"17":0.1374969596860314,"18":-0.5165736166754221,"19":-0.023302887887364166,"20":-0.24678832502586162}},{"sx":1,"sy":1,"depth":21,"w":{"0":-0.43065754231829845,"1":0.3183326814779182,"2":-0.32243793235602025,"3":0.24320579556146993,"4":-0.027854568909640214,"5":-0.1588957611820966,"6":1.1262054755487998,"7":0.3416171304429639,"8":-0.24795477995305168,"9":0.008909660819894102,"10":-0.3067393778257746,"11":0.018495894679923627,"12":0.2576859194339962,"13":0.20862090392000468,"14":-0.05585991141917619,"15":0.14553339382432648,"16":-0.30856449539190134,"17":0.2829090479118026,"18":0.049700015965833795,"19":0.04916059265142152,"20":0.03685891110045406}},{"sx":1,"sy":1,"depth":21,"w":{"0":-0.253062720447996,"1":-0.11154558686467372,"2":-0.10616092073202363,"3":-0.07579445766304886,"4":-0.017305519824768405,"5":0.03615527203946213,"6":0.14067394784436507,"7":0.44559734365496334,"8":-0.4870847317578608,"9":0.07918043465497944,"10":-0.002312124724622832,"11":0.02120602931692221,"12":0.20652362550444464,"13":-0.08939785704848599,"14":0.11040611962513525,"15":-0.3442762815225992,"16":-0.24132570249077848,"17":-0.28068763694877585,"18":0.019254383923334405,"19":-0.05667179862276243,"20":-0.15150584469483977}},{"sx":1,"sy":1,"depth":21,"w":{"0":0.7364168437277342,"1":-0.05865504221211012,"2":-0.3021877860473808,"3":0.19765796100901348,"4":-0.2254514798704657,"5":-0.22932649460578378,"6":-0.17799422769325646,"7":-0.18203240678188126,"8":-0.233505385907592,"9":-0.38709208537004397,"10":-0.20856398897755063,"11":-0.009435317730574634,"12":0.022233443062822322,"13":-0.19007126271437852,"14":-0.4361544146167929,"15":-0.08564478778242533,"16":-0.11332730481575172,"17":-0.10774038330311882,"18":-0.23812781454456303,"19":-0.15618000358357373,"20":-0.00019993658464518025}},{"sx":1,"sy":1,"depth":21,"w":{"0":-0.3317156966151343,"1":0.39474285145822297,"2":-0.13548359902233165,"3":-0.00043815511538289076,"4":-0.21772490704670083,"5":-0.18126380561030378,"6":0.009734336676139745,"7":-0.335291138914633,"8":0.3212853018910672,"9":0.31422185737217745,"10":0.23084672399135966,"11":-0.14452236758962045,"12":-0.14542404297710626,"13":-0.17352401007185608,"14":-0.09331681409073476,"15":-0.51798612142939,"16":-0.06403677524865783,"17":-0.00795339705862063,"18":0.1823777093951767,"19":-0.06069086407297997,"20":-0.14883477186191696}},{"sx":1,"sy":1,"depth":21,"w":{"0":0.20293590273541473,"1":0.27593404541542904,"2":-0.2656743119034966,"3":-0.23910358587046357,"4":0.37594367701828135,"5":-0.3174021092097391,"6":0.392006483152489,"7":-0.20213584158078451,"8":-0.09373806606252073,"9":-0.2352123752210956,"10":-0.2983098333398881,"11":-0.04277973953904256,"12":-0.24427777930742436,"13":-0.07271254490472423,"14":-0.030003829515623307,"15":0.03449213221031558,"16":-0.06472017919805723,"17":0.11450026054095208,"18":-0.1633516931873183,"19":-0.5249356071266815,"20":-0.04238908575954889}},{"sx":1,"sy":1,"depth":21,"w":{"0":-0.23732074080629156,"1":-0.04164877059205836,"2":0.21886168304746642,"3":0.5221152620442625,"4":-0.3913232205522173,"5":0.5411343596353078,"6":-0.05530306631559341,"7":-0.7565286281954198,"8":0.4215038736221121,"9":0.17173607932437343,"10":-0.3747047140131357,"11":0.004304301115230602,"12":-0.07804664887853147,"13":-0.18177446616932763,"14":0.03330797062183429,"15":-0.3062397913273866,"16":-0.33357614231539484,"17":-0.08871332353940231,"18":0.16364889288605358,"19":0.19572516868173118,"20":0.15176445946002898}},{"sx":1,"sy":1,"depth":21,"w":{"0":0.1581960057647155,"1":0.12411297167237427,"2":0.10098944762697219,"3":0.037895362404203256,"4":0.24647030522774518,"5":0.2829197150807077,"6":-0.11353896222691529,"7":0.09479939031880119,"8":-0.299412867764609,"9":0.04481665639659102,"10":0.19687048024049056,"11":-0.4086777075795434,"12":0.19942537320582424,"13":-0.10723705109859648,"14":-0.46441380307708063,"15":-0.45509824888481165,"16":0.19217909868157734,"17":-0.13601540468718254,"18":-0.13908701257950823,"19":-0.03816275234685542,"20":-0.09407769239029866}},{"sx":1,"sy":1,"depth":21,"w":{"0":-1.8148744777135035,"1":-0.14108043753098867,"2":-0.24520873703350682,"3":-0.029205203813275668,"4":-0.010680029624830206,"5":-0.1662212552484123,"6":-0.43775399153320455,"7":-0.01517444399561108,"8":0.16062981769851498,"9":-0.27208862791255883,"10":-0.03603484164392803,"11":0.003082309797142739,"12":0.07546819809725035,"13":0.033146685011127816,"14":0.12381276041847054,"15":-0.09060135908618153,"16":0.06343431660946297,"17":0.12316444696447951,"18":0.009642957676095881,"19":0.17340552273467238,"20":0.13854128400204002}},{"sx":1,"sy":1,"depth":21,"w":{"0":-0.3008288346393796,"1":0.40129872632626773,"2":-0.075028600502932,"3":0.578101436091096,"4":0.12195356608469608,"5":0.08843448149292943,"6":-0.22702077321229297,"7":0.311656024871229,"8":-0.20020074482076342,"9":0.31610725203503537,"10":0.15488663113556586,"11":-0.256006770935629,"12":-0.1750367315782214,"13":-0.21535323556575375,"14":-0.28942035489177276,"15":0.3963776753482272,"16":0.24880179854105136,"17":0.1638190282260585,"18":-0.28868819546604346,"19":0.10839922537243593,"20":0.04544828699529421}},{"sx":1,"sy":1,"depth":21,"w":{"0":-1.091675618024361,"1":-0.04761904271284814,"2":-0.01276895747747496,"3":0.11922264332659249,"4":0.11387788327015565,"5":-0.27074798292826524,"6":-0.6515013557192699,"7":0.31113218616349636,"8":-0.0995491841419877,"9":-0.2657857537972339,"10":0.050597681199902135,"11":0.48883610306432745,"12":-0.13261000307307752,"13":0.23356742003196734,"14":0.18371836250531504,"15":0.18081219463241852,"16":0.1023501164884884,"17":0.07595132898304885,"18":0.11872220848207109,"19":0.10285267293097515,"20":0.05389207514804532}},{"sx":1,"sy":1,"depth":21,"w":{"0":0.517859481544162,"1":-0.4782999667570431,"2":-0.03112429928633418,"3":0.45922446792830224,"4":0.18919451431451176,"5":-0.22385106549847064,"6":0.21829567695396923,"7":0.12784714918882847,"8":-0.269176748388593,"9":0.16776629348299024,"10":-0.3199179642390633,"11":0.11070550032454447,"12":-0.219574765386376,"13":-0.03947142388360043,"14":-0.033061284009068305,"15":0.23246693591043824,"16":0.15797556537229712,"17":-0.15885422803210558,"18":0.21884611704289736,"19":0.07664284048836803,"20":0.09063948129000314}},{"sx":1,"sy":1,"depth":21,"w":{"0":-0.02700041725522575,"1":0.031232185021812638,"2":0.1540606952229896,"3":-0.3415724989689595,"4":0.6186636651866368,"5":0.0735411370516687,"6":0.07892864058418353,"7":-0.30227485854603336,"8":-0.15809129207749598,"9":0.07553065450671323,"10":0.13606536420003867,"11":0.26387704676283424,"12":-0.23486862877710585,"13":-0.20356092175593404,"14":0.025778571051081955,"15":-0.17579864327789854,"16":0.1382525015379526,"17":0.3680488827294834,"18":-0.18353687327395313,"19":-0.18418569045378477,"20":0.004419508896235864}}],"biases":{"sx":1,"sy":1,"depth":50,"w":{"0":0.09869858613667866,"1":0.08617086725498672,"2":0.09945146680084731,"3":0.08309691283008101,"4":0.0823454314411512,"5":0.10301036770830628,"6":0.09281030727275359,"7":0.11013387950649779,"8":0.09908649743849016,"9":0.08224711611346232,"10":0.1167463320200645,"11":0.09767596296091728,"12":0.059874502878702426,"13":0.09798277255387,"14":0.11914691793790844,"15":0.10464970429718982,"16":0.06925358332713367,"17":0.11002475149630864,"18":0.08961973557297437,"19":0.03794231480848466,"20":0.08928005630082463,"21":0.10818531783458385,"22":0.16072787489542606,"23":0.11352422263201917,"24":0.10356335758413128,"25":0.10726396392575971,"26":0.10691502499571126,"27":0.09221285558565036,"28":0.10629617580350278,"29":0.08515118338346438,"30":0.08352398618680526,"31":0.09538566072426474,"32":0.0904543596329764,"33":0.1380234434867652,"34":0.08257248251072248,"35":0.11319314320232216,"36":0.10714430281280866,"37":0.09451479700192454,"38":0.09848589227516276,"39":0.1,"40":0.1,"41":0.08840281095085656,"42":0.1,"43":0.1559973367888024,"44":0.1,"45":0.11050260971496632,"46":0.0765434403912122,"47":0.07833618838240008,"48":0.09205249012989568,"49":0.08019540716634105}}},{"out_depth":50,"out_sx":1,"out_sy":1,"layer_type":"relu"},{"out_depth":50,"out_sx":1,"out_sy":1,"layer_type":"fc","num_inputs":50,"l1_decay_mul":0,"l2_decay_mul":1,"filters":[{"sx":1,"sy":1,"depth":50,"w":{"0":0.12606355026465887,"1":0.06539620350724365,"2":0.20225828731864173,"3":0.3372349041355524,"4":-0.6448389428733625,"5":0.016086484421101784,"6":0.08851398217041999,"7":-0.14672502479687904,"8":0.24911447669599637,"9":0.18352588938852848,"10":-0.17942200152957358,"11":-0.06744299753503265,"12":-0.03487599291520748,"13":-0.19229871874816193,"14":0.04431011204104508,"15":-0.009567089486693168,"16":0.14341126665433757,"17":0.06140897460254302,"18":-0.2854524940719481,"19":-0.16226658393165966,"20":0.1844044177149676,"21":0.6022311940549382,"22":0.5249958339879922,"23":0.096995870161486,"24":-0.01812041089397839,"25":0.09744668841665745,"26":-0.0010309128921278537,"27":0.15872025508316034,"28":-0.08262764007631025,"29":0.10357064866345676,"30":0.09843307304397751,"31":0.016757739757270775,"32":0.1289086165845797,"33":-0.06657549893609796,"34":-1.1210387882673485,"35":0.15054730861722287,"36":0.153572749142771,"37":0.013831801201734342,"38":-0.06768027167550102,"39":0.02068941716920291,"40":0.1237743502828774,"41":0.08182462751514967,"42":0.22162277941084216,"43":0.2474508627859888,"44":0.06326127943143331,"45":-0.48999215954180286,"46":0.1470162800889673,"47":-0.03676130121682197,"48":0.010207222114963329,"49":-0.2318693023049137}},{"sx":1,"sy":1,"depth":50,"w":{"0":0.1681906111617642,"1":0.03659637067345592,"2":-0.026011600867711582,"3":0.04773775114234372,"4":0.2578067070871184,"5":-0.26983208377608214,"6":-0.17367511883970876,"7":-0.017520458867980752,"8":0.11705181675197443,"9":-0.057481191325625736,"10":-0.16334696763105624,"11":-0.08986135910620384,"12":0.00014224929307949142,"13":-0.06892161096080705,"14":-0.25929798310505453,"15":0.030156698667449612,"16":-0.07423538269097028,"17":0.31543757801256656,"18":0.06697837942676495,"19":0.23906104035943024,"20":0.016145954411178887,"21":0.05861304659623044,"22":0.4170204691546965,"23":-0.5257959743354531,"24":0.2386526611082283,"25":-0.0282534228722216,"26":-0.0730282321722523,"27":-0.1740407529817046,"28":0.17012699248729163,"29":0.1019206077691601,"30":0.1269285563312976,"31":-0.17728794889709995,"32":-0.23527790379604904,"33":0.017077471961510545,"34":-0.18174010256213916,"35":-0.20591451824243479,"36":0.029100534089702982,"37":-0.28353205111735363,"38":-0.12099295674683379,"39":-0.33058228132669715,"40":-0.1613543000261369,"41":0.013303511036318735,"42":-0.12654593887468144,"43":0.4972243236369814,"44":0.038723000803998174,"45":-0.15845513955438334,"46":0.005962894017336579,"47":-0.10173745036612446,"48":0.1453746074359561,"49":0.039735238618371714}},{"sx":1,"sy":1,"depth":50,"w":{"0":0.21085351975087244,"1":0.17884471374166094,"2":0.007039649056203878,"3":0.008985658896416875,"4":0.7349193711357971,"5":0.021863834690182563,"6":-0.05584125126942795,"7":0.03067169717142221,"8":0.01925271470627059,"9":0.0017859867370324674,"10":-0.12058977853390027,"11":0.05655453233570147,"12":-0.14158123330574504,"13":-0.022096346308164802,"14":0.023028630011123697,"15":0.06378937752830993,"16":0.11203331358458711,"17":-0.011282894926425098,"18":0.541127305667491,"19":-0.11312329563477103,"20":0.09195570205469869,"21":-0.06706523735791275,"22":0.2546781720882131,"23":-0.05162189506570866,"24":0.11884871845610287,"25":0.622149459945211,"26":-0.03292922331910652,"27":0.08250561047787258,"28":-0.14692050653768501,"29":-0.05313993068834276,"30":0.5007957270860522,"31":-0.1574734580723195,"32":-0.10405839356986459,"33":0.016900719331008406,"34":0.8961651869638525,"35":-0.3327101295382156,"36":0.24052597814921278,"37":-0.0703659911847897,"38":-0.35373381468376175,"39":-0.07157484199489282,"40":0.18904415961119378,"41":-0.14422529313541013,"42":-0.22041080934499058,"43":0.39295931319119776,"44":0.16810616641925036,"45":-0.41731862375946494,"46":-0.10872827083547905,"47":0.14812155999755205,"48":-0.11117499867783853,"49":0.1340511964224002}},{"sx":1,"sy":1,"depth":50,"w":{"0":-0.11457245257920148,"1":-0.09523374083668666,"2":-0.04759259366829807,"3":-0.02887959078762224,"4":-0.08030936012080149,"5":0.3000902953294225,"6":0.17467474672426445,"7":-0.11274202941113314,"8":-0.1673029360744441,"9":0.1382609375775457,"10":0.07174949284209213,"11":-0.13477790140761126,"12":0.0728563862805702,"13":0.022131384840090758,"14":-0.023810896391115614,"15":0.1893645938229683,"16":-0.27920354379088685,"17":0.08653984016994987,"18":0.13851557821820476,"19":-0.03420095995489951,"20":-0.03323621793621989,"21":-0.023177122231050392,"22":-0.03432478373931299,"23":-0.1438538661895491,"24":0.22067706677294335,"25":0.09128337372996277,"26":0.14251417533332397,"27":-0.18970818156252112,"28":0.01569952698059855,"29":-0.05221058534290132,"30":-0.10319145301627589,"31":-0.1282420603049657,"32":-0.05854701011354567,"33":-0.18340020721397737,"34":-0.381528222790427,"35":-0.10675628778250584,"36":0.17649528502670214,"37":-0.07499597702510168,"38":-0.1081115335862867,"39":-0.025124329256757772,"40":0.026557158505579676,"41":0.11443411763920405,"42":0.18091608237813442,"43":-0.23807155351004183,"44":-0.24131107958071735,"45":-0.17897718489213366,"46":-0.05009151297499599,"47":0.060406054053854324,"48":-0.170642253661445,"49":-0.019129871146560944}},{"sx":1,"sy":1,"depth":50,"w":{"0":-0.025276032183976414,"1":0.04832639646174876,"2":0.14833780681390238,"3":0.18908001357360663,"4":-0.22471402585910877,"5":0.21956401700367253,"6":-0.019985829760744957,"7":0.20663113635800923,"8":0.2637243022382363,"9":-0.10710672205807573,"10":-0.15430685119618595,"11":0.14710442511148528,"12":0.10865944380025984,"13":-0.10357505118240519,"14":0.2039368263692716,"15":0.06410037721258575,"16":-0.03029328777042916,"17":-0.193168342346998,"18":0.13803130210968767,"19":0.09910917014287304,"20":0.07711628959220813,"21":-0.05414922947294189,"22":-0.14981297323205806,"23":0.4235188720706349,"24":-0.125179197210342,"25":0.06779054713839912,"26":-0.17995232634135366,"27":0.03363125354282748,"28":-0.0973977708388342,"29":0.09426358045645926,"30":-0.20939176395083967,"31":-0.008141950361796161,"32":0.3196583872928247,"33":0.16059150650782059,"34":-0.17460753671404672,"35":-0.11454160128041475,"36":-0.29246091208304587,"37":0.014253028629881478,"38":0.15889419742089897,"39":-0.06343150554286868,"40":-0.12180514007098557,"41":0.20433150240306455,"42":-0.20018437903349523,"43":0.27661695336578374,"44":0.1348013155684628,"45":0.36998383613227964,"46":-0.13093788875233764,"47":-0.12326426193237168,"48":-0.3577529342928636,"49":0.02542586233135686}},{"sx":1,"sy":1,"depth":50,"w":{"0":0.11029323909808689,"1":0.05512855278487577,"2":-0.11330919966417316,"3":-0.014707380725834022,"4":-0.025184314148600572,"5":-0.1373288869104012,"6":-0.3047300211606781,"7":-0.16237074060107357,"8":0.017904570073023218,"9":0.10168301378580534,"10":-0.1161597629614865,"11":0.13358030381116368,"12":-0.060247578862134284,"13":-0.14213784101429602,"14":0.03317194306554257,"15":-0.04035005960253003,"16":0.06093874136562068,"17":-0.13135569593205612,"18":0.038946338876596605,"19":-0.019040150007578784,"20":0.11380936914354575,"21":0.24518208031653504,"22":0.24690494279481998,"23":0.0768651943740263,"24":-0.1726063562858069,"25":-0.17206712150740638,"26":-0.15583428601155003,"27":-0.20904043468781375,"28":-0.032835045144214134,"29":0.011258606335636984,"30":-0.02133781322367109,"31":0.11014653311762085,"32":-0.1712047729422348,"33":0.010876365452903169,"34":0.14968127108708057,"35":-0.09808916864370425,"36":0.01171787876723389,"37":0.22473201624862682,"38":0.010041889237735427,"39":0.07741590275461081,"40":0.14651546325455134,"41":0.2092613386756565,"42":-0.25797129822194326,"43":0.012703112164245224,"44":0.18626176185598856,"45":-0.08030142842741021,"46":-0.2888065046129278,"47":0.013631741876201049,"48":-0.028253374979896596,"49":-0.04017751938842365}},{"sx":1,"sy":1,"depth":50,"w":{"0":0.0025500068034710077,"1":-0.09566410197793972,"2":0.20160184139167234,"3":-0.30907648755368694,"4":0.34727671209089345,"5":0.08683589984870013,"6":-0.05443534805476058,"7":0.25363990970744055,"8":0.1502820508748626,"9":0.09362393741033012,"10":-0.06455484091724442,"11":-0.10187095716093737,"12":0.05997136018240953,"13":0.02651239809046831,"14":0.062395150712625115,"15":0.05698080740449274,"16":-0.2325966895187918,"17":-0.031017897107934938,"18":-0.04165760076152257,"19":0.2586536918669427,"20":-0.11821816754855817,"21":0.04630030981994722,"22":-0.032894678976642604,"23":0.05676268005632056,"24":0.1105953592911778,"25":-0.219733369779194,"26":-0.17488069587831953,"27":-0.07096637033502595,"28":0.022278963258659287,"29":0.051664863697766704,"30":0.038425278089958236,"31":0.11199933543510554,"32":-0.2585194342203956,"33":-0.010862276564313515,"34":0.12412688563848948,"35":0.034412550505821336,"36":-0.07066458365882414,"37":0.24724995791807328,"38":0.10465826760034579,"39":0.19326087712826415,"40":0.004468318423560231,"41":0.09019277583549994,"42":-0.087718727994526,"43":0.18760421572561928,"44":-0.2971754666198935,"45":-0.03214155739437002,"46":0.10060355651718972,"47":0.1543673164502813,"48":0.11619742081330221,"49":0.06420436882620258}},{"sx":1,"sy":1,"depth":50,"w":{"0":-0.08225269304042689,"1":0.16494446470462937,"2":0.0373810029933268,"3":0.12924556592914588,"4":0.8640462870074938,"5":0.07757456351775602,"6":-0.2635971054903936,"7":0.030418455639841795,"8":-0.09357479023410695,"9":0.021709744650076298,"10":0.007757042311379361,"11":-0.025920495218358753,"12":0.09724272890521535,"13":0.1403780249968269,"14":-0.061071054553881586,"15":-0.19469925005034572,"16":0.1363276749533154,"17":0.26735288241672966,"18":-0.1696848234775753,"19":0.5217875579510716,"20":-0.041349661470975844,"21":-0.13216357857033367,"22":-0.10247394062984805,"23":0.012279859041459859,"24":-0.09679169905478263,"25":-0.08448965314216648,"26":-0.13234816143282033,"27":0.16098934283502364,"28":-0.2670626438284178,"29":0.08027826742198155,"30":0.09813719130754274,"31":-0.29108722802168263,"32":-0.08328702072827388,"33":0.24113344907945214,"34":1.0217044456364421,"35":-0.01117813147371035,"36":0.06538972946779048,"37":0.010203132183399303,"38":0.28356265858689633,"39":-0.07882172631353654,"40":0.09202013206942815,"41":-0.2656383949541735,"42":0.2812957751919838,"43":-0.3471118818831876,"44":-0.07040278622095708,"45":-0.11510033421230108,"46":0.4268296205969253,"47":0.18785303535698333,"48":0.12022987305839415,"49":-0.063991934879948}},{"sx":1,"sy":1,"depth":50,"w":{"0":-0.11972575482421675,"1":-0.16878207831118433,"2":0.14807375795480227,"3":-0.010949891375843354,"4":-0.39707823569825873,"5":0.07380205625267779,"6":0.23370124954571575,"7":0.1484925916901993,"8":-0.0007639208980784343,"9":0.0932191940543748,"10":0.028929966352875185,"11":-0.07117188623798124,"12":0.06214509337005642,"13":-0.10158642406226473,"14":-0.18872038640204097,"15":0.128933245786246,"16":-0.029488707241314048,"17":0.11988480040868107,"18":-0.19645022399803205,"19":-0.18437746794285753,"20":0.14630766595767017,"21":-0.0836402150093376,"22":-0.03186348549167652,"23":-0.22186611412072746,"24":-0.2104454266571991,"25":-0.13502925416069456,"26":-0.11792242476199852,"27":0.09897169633184259,"28":0.37495767726670287,"29":-0.061877316949831764,"30":0.16064035465182674,"31":0.015813370454633803,"32":-0.13638607925810106,"33":0.16157158245757863,"34":-0.29260800955355915,"35":-0.055279593728824815,"36":0.02022774514143019,"37":-0.11843644039625145,"38":0.15031822161358463,"39":0.23642535288667843,"40":-0.1852007091597945,"41":-0.11414868340419962,"42":-0.17763004370461366,"43":-0.0479438783803485,"44":-0.09588124069963885,"45":-0.11267333035135421,"46":0.14888179447288424,"47":-0.06800286695947946,"48":0.11002763746729938,"49":0.19668180756896397}},{"sx":1,"sy":1,"depth":50,"w":{"0":-0.09781523123636159,"1":0.25812734088096523,"2":0.09520419486856722,"3":0.1692318319749322,"4":0.1341752875546512,"5":-0.11944550976117844,"6":0.10983856471710852,"7":-0.1552876455381557,"8":-0.21556164744282005,"9":0.20033788527752544,"10":0.09717451604252775,"11":0.04448893971680655,"12":0.010208484770992343,"13":0.03937827876581323,"14":0.09039040431199974,"15":0.10768637634545981,"16":0.17951276654126044,"17":-0.06787961315223646,"18":0.37915084126926507,"19":-0.1084042015187841,"20":0.009150532732659014,"21":-0.28876028441453283,"22":-0.3270836113711702,"23":-0.22330135712358884,"24":0.16504603987414979,"25":0.026588386559434303,"26":-0.09651853494532295,"27":0.050339312059289515,"28":-0.3907493067409964,"29":-0.03398027675636514,"30":0.11488401129078316,"31":0.04399408843475487,"32":0.07620489091302178,"33":-0.12455807862453425,"34":0.28876131724560267,"35":-0.000804770830639421,"36":-0.10526000904128352,"37":-0.08429325817302723,"38":0.04996532854109498,"39":-0.0005223579379415509,"40":0.008061494702345202,"41":-0.034731002256368236,"42":-0.006460200317255958,"43":-0.37696794223526897,"44":-0.14975649998458898,"45":0.268716091710614,"46":0.10641056939333682,"47":0.13754253177001577,"48":-0.30019573238034136,"49":0.10145827940892475}},{"sx":1,"sy":1,"depth":50,"w":{"0":0.15317902536705783,"1":-0.08614377595220478,"2":0.025629686457351763,"3":0.035101285034563966,"4":-0.21726844440826398,"5":-0.01609514534871032,"6":-0.16814726722344056,"7":-0.09663552369622427,"8":0.1625820882977254,"9":0.19634602122273753,"10":-0.1035598228921311,"11":-0.1036094446722508,"12":0.23778634927556913,"13":0.07425373506370463,"14":-0.018094233241053987,"15":-0.17175281840836784,"16":-0.02963839006364737,"17":-0.1313323676205978,"18":-0.07345217632118868,"19":-0.1646110589230212,"20":-0.03284940281346175,"21":-0.08688614608755066,"22":0.13168224799146822,"23":0.1536258225222491,"24":-0.04541227429749511,"25":0.17226465888338266,"26":-0.13177972952993633,"27":0.3117880910336027,"28":0.040407913851342736,"29":0.01678338204437065,"30":0.20161019490341445,"31":0.09847800484368256,"32":-0.0322916793530454,"33":0.08294238468539795,"34":0.419379972129771,"35":-0.2007534329790766,"36":-0.003153378753762069,"37":-0.009290823979585064,"38":-0.01630349861391836,"39":0.03283366902405953,"40":-0.07846965514976524,"41":0.009464141062321678,"42":0.07755243479721166,"43":0.025441146662104754,"44":-0.2093265466917572,"45":0.06664166405147426,"46":-0.12468893457620597,"47":-0.03198054390231924,"48":-0.09209062682894639,"49":0.062106325153864446}},{"sx":1,"sy":1,"depth":50,"w":{"0":0.1900479555267601,"1":-0.01993228174351662,"2":0.16884054180041924,"3":0.03947092167682956,"4":0.5561621435826003,"5":-0.01806021372864862,"6":-0.1416207353489578,"7":-0.0022141416344567066,"8":0.02690615633468696,"9":0.02352249782573011,"10":-0.11750422541551414,"11":0.3488146021939178,"12":-0.19943339214850053,"13":0.33697339100524426,"14":-0.1447790937894894,"15":0.3228131541785962,"16":0.16767079950830568,"17":0.11641375382845891,"18":0.2849786752003969,"19":0.3324505989463648,"20":0.0725831024955054,"21":0.1635868026920245,"22":0.6769814858583036,"23":0.07249769520966984,"24":0.06956269753679682,"25":0.18150561338300758,"26":0.17631560884190325,"27":0.10689309941961862,"28":-0.22144090657621568,"29":-0.08994669241282165,"30":-0.06967026769669381,"31":-0.10903188197822793,"32":0.029676673279299712,"33":0.20471986048919483,"34":0.8241103422250298,"35":-0.02811932376972089,"36":0.029082973578651507,"37":-0.09160617488334682,"38":-0.1365362261932591,"39":-0.002480079158385931,"40":0.06472614829142455,"41":-0.17993927853545827,"42":-0.04937383387769475,"43":0.04044511353927336,"44":0.07109525539511756,"45":-0.3494192379106862,"46":-0.30524400803337637,"47":-0.20164286719057878,"48":0.3283036121036442,"49":0.0911319588528359}},{"sx":1,"sy":1,"depth":50,"w":{"0":0.35770589351738147,"1":-0.4336133946362902,"2":0.16457022834048238,"3":-0.05860782952518039,"4":-0.23427221818046426,"5":-0.007939219582975287,"6":-0.021931200021487966,"7":0.2268643914287406,"8":0.2669904903947737,"9":-0.048298906022987455,"10":-0.32430929385479484,"11":0.21071211108891497,"12":-0.2803087867845902,"13":-0.04001988902947992,"14":0.294846444732375,"15":0.019075343054282278,"16":-0.047221205948990215,"17":-0.07923131411081524,"18":0.03614951308830316,"19":-0.17439301763167978,"20":0.2560215880686995,"21":-0.006496294800998754,"22":0.13624219480817587,"23":0.12754944923815398,"24":0.09779900487407078,"25":-0.11580818805602486,"26":0.24385584257074916,"27":-0.4710565286385306,"28":-0.09796013685715155,"29":-0.2849214926171716,"30":0.13009396584990707,"31":-0.3390092830546269,"32":0.15759187784406153,"33":0.04534980229930224,"34":0.055744485636243034,"35":0.12924689386513627,"36":0.00589097018014825,"37":0.1727490209396592,"38":0.1934979750969529,"39":-0.04700437491507118,"40":0.2849414438567237,"41":0.24977202273079663,"42":0.01119645267675874,"43":-0.1662632816913309,"44":-0.06954952979685065,"45":-0.0678978508373759,"46":-0.19057859191427154,"47":0.03699248343484859,"48":-0.25585952561226166,"49":-0.05601535586603032}},{"sx":1,"sy":1,"depth":50,"w":{"0":-0.03360645713400445,"1":-0.07680314130684777,"2":0.025956013254939014,"3":-0.016234097367033316,"4":0.01709786097940924,"5":0.06778890136002401,"6":-0.0023875063707426178,"7":0.31666602082092227,"8":-0.18757434102779635,"9":-0.09695676331828867,"10":0.16315091242241905,"11":0.10920528623512833,"12":-0.07412222808753341,"13":0.21936140072992952,"14":-0.12542021436459133,"15":0.2257626552221234,"16":-0.08280057579004181,"17":0.2113409005447413,"18":0.0681016406315046,"19":-0.22569800307122814,"20":-0.3359545695516765,"21":-0.04886969709612094,"22":0.027163515891692875,"23":-0.1522864046812425,"24":0.04620809937435051,"25":-0.0066156207780876065,"26":-0.0415919384969211,"27":0.10221251794557255,"28":0.020021776902529244,"29":-0.2540859873769361,"30":0.0545244748747968,"31":-0.08360013146076621,"32":-0.17506899423493122,"33":-0.046111725380283214,"34":0.319327855530652,"35":0.15669740921198513,"36":0.02064295804043426,"37":-0.17228116633022225,"38":-0.23593987347564352,"39":0.0597545137908454,"40":0.04988296389430016,"41":0.2413432568453202,"42":0.0836627662245509,"43":0.23385544884241413,"44":0.051998538403933335,"45":-0.2004742018666313,"46":0.06443090897391057,"47":0.07516488723730591,"48":0.1582421308933723,"49":0.2362580829618358}},{"sx":1,"sy":1,"depth":50,"w":{"0":0.1924492982875153,"1":-0.06802272426804708,"2":-0.13547787988568072,"3":0.027879973031636977,"4":-0.2449518026763814,"5":-0.11808377829200269,"6":-0.029215449673294817,"7":0.168550562882086,"8":0.009436134513568657,"9":0.166261894872727,"10":-0.1611137213990466,"11":-0.03525328170493581,"12":-0.005996205602967203,"13":-0.16601743868371147,"14":0.05899694437711249,"15":-0.22522184868403836,"16":0.06846512874469728,"17":-0.029854234193892562,"18":0.016428386847321213,"19":-0.0010367342354384338,"20":0.1340813009259809,"21":-0.054374185507212944,"22":-0.035518347709649546,"23":-0.02416668406157655,"24":0.029594712515142434,"25":-0.04332153273741226,"26":-0.2173387581771585,"27":-0.14585628873069603,"28":0.07605711579488857,"29":-0.07554030568519839,"30":-0.08174179054142108,"31":0.06532980791507521,"32":0.01694264777735411,"33":0.013774358598171901,"34":-0.2568832875909562,"35":0.047497971907856845,"36":0.04399219875373375,"37":-0.034368966135854745,"38":-0.07547196602022846,"39":0.0455762223973883,"40":-0.06258526684718604,"41":-0.011205822699501211,"42":0.09930664219526786,"43":-0.06693900405675907,"44":-0.020133269606300686,"45":-0.0925989154715235,"46":0.2474254516054743,"47":-0.11685184102545122,"48":-0.10139389842784491,"49":-0.0050832906216780995}},{"sx":1,"sy":1,"depth":50,"w":{"0":0.1287484395363597,"1":0.01399371685200006,"2":-0.12865276057678326,"3":-0.040931140934075766,"4":0.15722462662530295,"5":0.02647733573053149,"6":-0.019608656660953554,"7":-0.19719755193818872,"8":-0.1462310213536603,"9":0.05924018101301131,"10":-0.13944213108922948,"11":0.02365147752094584,"12":-0.00669195202496809,"13":-0.1224014930440708,"14":0.11230544685722599,"15":-0.014785280764685087,"16":-0.04457377769160087,"17":-0.08150608209946934,"18":0.08152937197148635,"19":-0.18608976157081944,"20":0.42435766640679123,"21":0.17643854568432843,"22":-0.0036318956034024387,"23":0.2075323948556259,"24":0.008946132397310047,"25":0.353000001786473,"26":0.06398057216962356,"27":-0.07381724596918314,"28":0.17314136518609957,"29":0.06896004712594644,"30":-0.23431890652636572,"31":-0.025409709531274888,"32":-0.061171110663039596,"33":0.2676464680119451,"34":0.08389607670195409,"35":-0.05576141350357365,"36":-0.07687500732681035,"37":0.13847438094272635,"38":0.015246549584639548,"39":0.07547118035434762,"40":-0.11780271350024973,"41":-0.13215097306095508,"42":0.06480360291498513,"43":0.043119768834189595,"44":0.06240323380519996,"45":0.011800704849819698,"46":-0.08624986060948595,"47":0.11119666787462282,"48":-0.19829611422195795,"49":-0.03511958784832539}},{"sx":1,"sy":1,"depth":50,"w":{"0":0.020470670522760935,"1":0.10856219838860219,"2":-0.21632054451358612,"3":-0.20623670682516676,"4":-0.3440305300898468,"5":0.0034263026666423013,"6":0.008726371058234868,"7":-0.074103699738673,"8":-0.1413257794787339,"9":0.2125425734449443,"10":-0.03129514298654292,"11":-0.10095317681513417,"12":0.3040673716314187,"13":-0.18938137967294164,"14":-0.16032637575591618,"15":-0.07970029482462587,"16":0.11773465378677456,"17":0.13292426672255853,"18":-0.020012756255630107,"19":0.22071072532676403,"20":0.13490100477047018,"21":0.009180369051003674,"22":0.16105809137844934,"23":0.08785145651470685,"24":-0.09203649590363731,"25":-0.17800344317631925,"26":-0.1267035343948926,"27":0.14481708997690643,"28":0.14405379033918309,"29":-0.06590640830313024,"30":0.04917889709740039,"31":-0.3234090900913933,"32":-0.08762226058732289,"33":-0.02258605331660712,"34":-0.15378778606304205,"35":0.13042769462686316,"36":0.2654468503892327,"37":0.004141014729097941,"38":-0.07911265136562351,"39":0.1930392125559584,"40":0.1894110075317571,"41":0.15516613051782913,"42":0.21103611745425238,"43":-0.0775170550165475,"44":-0.393000203083754,"45":0.007306899779566877,"46":0.186217808481333,"47":0.1565689181926428,"48":-0.11044246469125506,"49":0.10162390328395533}},{"sx":1,"sy":1,"depth":50,"w":{"0":-0.3293657691725712,"1":-0.126422157375684,"2":-0.14442156644662665,"3":-0.00005567842334450281,"4":-0.06905833000639996,"5":-0.08230519301952587,"6":-0.16829710319737115,"7":0.14516939197639644,"8":-0.09296530169728223,"9":0.015908129112796446,"10":-0.038530558114207594,"11":-0.060116508760589146,"12":-0.16177846452240777,"13":0.19467062540907773,"14":-0.06025719356643987,"15":0.0669676632440191,"16":-0.11525685164521625,"17":-0.02883123252425922,"18":0.06484022165445673,"19":-0.18770511279362118,"20":0.04217514693388393,"21":0.06614947074999696,"22":-0.0063577732891900085,"23":-0.2134958052237419,"24":0.06149274560035653,"25":0.16285875910419217,"26":-0.19697365535457056,"27":0.1312227692294322,"28":0.18425817856344587,"29":0.06431937142020992,"30":0.03755316259088737,"31":0.3881398117539931,"32":-0.06238951299539915,"33":-0.09073814528391867,"34":0.13475048112680213,"35":-0.07291623785051789,"36":0.13485886879409414,"37":-0.008730561172498166,"38":-0.1977796427952764,"39":0.2666328181912634,"40":0.1558843361363877,"41":0.05720209995956785,"42":0.3381401948556327,"43":-0.2903064349572633,"44":0.10894264908063979,"45":-0.007965093450344773,"46":0.014305577876751943,"47":-0.08653506253777785,"48":0.1337160172809426,"49":-0.07044209899635487}},{"sx":1,"sy":1,"depth":50,"w":{"0":0.09406218463943232,"1":-0.21421947792744067,"2":0.1164207368032352,"3":0.03608604742703542,"4":0.35304262546940324,"5":-0.2380777815234362,"6":0.23355009546981675,"7":0.2662739112963342,"8":0.027468539319648294,"9":-0.08819370788768525,"10":-0.11542447807436726,"11":-0.27070446598467174,"12":-0.17887483510364724,"13":0.34170825449014863,"14":-0.11006304241346931,"15":0.0554669938805893,"16":-0.01421128780635454,"17":-0.03347575550220815,"18":-0.1773773172141747,"19":-0.10751132070157261,"20":-0.24104380405216252,"21":0.15117438473506456,"22":0.01713105137597151,"23":0.15144837085684515,"24":0.03456666198908091,"25":0.0015036270200684957,"26":-0.17478687737172283,"27":0.006480324468424698,"28":0.06367218598776582,"29":0.28768064063318743,"30":0.06842254662664611,"31":-0.03543902439862694,"32":0.060842135031092266,"33":-0.024368492223973394,"34":0.004998649989170734,"35":-0.20544550836523912,"36":-0.0719937891183016,"37":0.08241022883540954,"38":-0.059903439122624434,"39":-0.05459863248124103,"40":-0.026590767720130824,"41":-0.13258545385402581,"42":-0.04311222935956089,"43":0.10511229880588366,"44":0.02440656234775144,"45":0.009621084979222316,"46":0.07827039819061374,"47":0.11942538869415553,"48":-0.040996145427831095,"49":0.24154040527282797}},{"sx":1,"sy":1,"depth":50,"w":{"0":-0.24911445271036564,"1":0.07356554334641045,"2":-0.005226836875561804,"3":-0.16776811925490942,"4":-0.05494048018641781,"5":-0.32619969431730117,"6":0.15049492902659456,"7":0.05675759778531644,"8":0.0699057741182224,"9":0.017717112282733975,"10":-0.16662900385394772,"11":0.0012926806888705926,"12":0.11959205783985478,"13":0.00920792553945992,"14":0.030318172423436617,"15":0.11665879805857096,"16":-0.0030589405173148325,"17":0.01893375372065474,"18":0.11183038327578836,"19":0.04184526779353682,"20":-0.0018015735779703574,"21":0.19390140014860827,"22":-0.17625605787898568,"23":-0.09579266323226089,"24":0.06987928056997567,"25":-0.07285285693409098,"26":-0.269392262606311,"27":-0.1422568237189025,"28":0.035280776739084724,"29":0.0438829082391884,"30":-0.1392495612108343,"31":0.06737327180835179,"32":0.15209463380136534,"33":-0.14206371073264354,"34":-0.1309944587380468,"35":0.18737825258009358,"36":-0.22070911241802746,"37":0.2075733916072695,"38":0.11484728768010204,"39":0.06723783146695717,"40":0.10793656449548021,"41":-0.15182168090154347,"42":0.07560042970069158,"43":0.26918987608887834,"44":-0.1086776611215372,"45":-0.008506042842083023,"46":-0.2143049648689771,"47":-0.09910805766237905,"48":0.06041841032258273,"49":0.00039303046155933377}},{"sx":1,"sy":1,"depth":50,"w":{"0":-0.1792801972881436,"1":0.24165123384902076,"2":0.21108379231165156,"3":-0.1315829284904529,"4":0.0063442598311979695,"5":-0.03869051804970006,"6":-0.17404744816732665,"7":0.11586806298468083,"8":-0.062264604453011095,"9":-0.20955240461385438,"10":-0.5171984790376187,"11":-0.45747562522010904,"12":0.029434947541028978,"13":-0.11226029812226428,"14":0.4342725775736771,"15":-0.2473880568062006,"16":0.00006400394493304609,"17":-0.1468351728793138,"18":-0.02728105974739561,"19":-0.33495060873917576,"20":0.053901783769453086,"21":0.06755362956045846,"22":-0.22140415314573614,"23":0.21394109482208282,"24":0.018469529768888018,"25":-0.09263734729479542,"26":0.13465404825488306,"27":0.3124700676664191,"28":0.0896090973305797,"29":-0.20305727847262928,"30":0.10393269435550846,"31":-0.04537389014143977,"32":0.2694296809777054,"33":0.04971259031877377,"34":0.2792588276157968,"35":-0.26752734759886565,"36":0.1662993369913492,"37":0.16995451075205473,"38":-0.041809798142658595,"39":-0.13088902688546844,"40":-0.10831035262282954,"41":0.2101611904505656,"42":-0.25925442832307644,"43":0.2276387816951862,"44":-0.08583898713072548,"45":0.5564434999163436,"46":0.19274417613850103,"47":0.2010226099164746,"48":0.08123315785011499,"49":0.023902128856036712}},{"sx":1,"sy":1,"depth":50,"w":{"0":-0.1644320928436315,"1":-0.007999694617983812,"2":0.04783567910220412,"3":0.06473085193275759,"4":-0.0737706457339773,"5":-0.24932606172167862,"6":-0.014535397822169676,"7":0.04179182542609057,"8":0.1503056293782649,"9":-0.009611596506850142,"10":-0.019694131257039973,"11":-0.015335486082591525,"12":0.20745176704356671,"13":0.07743730658667561,"14":-0.21780967691972428,"15":-0.13960140989680733,"16":-0.011344861575658751,"17":0.09831637030226809,"18":-0.03159543698300357,"19":0.08556259461603649,"20":0.21171449280103158,"21":0.11055297036758208,"22":0.07826769753068064,"23":-0.1619635925528583,"24":0.09783599846715642,"25":-0.1510906622716231,"26":-0.08571189944202408,"27":-0.11887301719054744,"28":-0.04374667448003875,"29":-0.030183290860785923,"30":0.007140242737029586,"31":0.07195956008562338,"32":-0.05705427983301041,"33":-0.10619190638399079,"34":-0.08313229891293014,"35":-0.007692277987171719,"36":0.011848502503968295,"37":-0.1768771427018035,"38":0.001004844020276129,"39":0.13201887593530584,"40":-0.024847859424511346,"41":0.21569536199082404,"42":0.03811949397913118,"43":0.08477273838695423,"44":0.18412009030295,"45":-0.03889125454198129,"46":0.20893195549194363,"47":-0.1488534440742973,"48":-0.13289490658806644,"49":-0.029662454697462856}},{"sx":1,"sy":1,"depth":50,"w":{"0":0.244687853921266,"1":0.0076987430798624995,"2":-0.08555766269123169,"3":0.1036267261089907,"4":-0.5312018637690447,"5":-0.07997511597405346,"6":0.006048637854219634,"7":0.05238137322479196,"8":0.12708412402082916,"9":0.14283676569193288,"10":-0.03515178055984557,"11":0.12826939440429577,"12":0.14049175303374048,"13":-0.280807008831931,"14":-0.05146252294225948,"15":0.13835536084918376,"16":-0.029817402310062403,"17":0.245947539343275,"18":-0.26749022974840164,"19":0.011391776351581073,"20":-0.015177053355329593,"21":0.07720174385042236,"22":-0.04599606400192927,"23":0.027919028940732026,"24":-0.009587135467030635,"25":-0.3310576601571339,"26":0.15383833164537478,"27":-0.039793897019732835,"28":0.2515035788332876,"29":0.05920713872829127,"30":-0.1777736683928282,"31":0.02596805304683948,"32":-0.2864299978112283,"33":0.15676686883613858,"34":-0.487303717661541,"35":0.0236176477045544,"36":0.2439536535438361,"37":-0.11669589743976165,"38":-0.04498981625083096,"39":-0.008263238605311026,"40":-0.05972059018583488,"41":-0.15266194139810849,"42":0.09853393543496883,"43":-0.019101327216825982,"44":0.029250606748427537,"45":0.1338319393528608,"46":-0.016698301755188508,"47":-0.1843380520308327,"48":0.05704305762163275,"49":-0.3362072844824358}},{"sx":1,"sy":1,"depth":50,"w":{"0":-0.13175768586926082,"1":0.21384005417205612,"2":0.18033732004098132,"3":-0.14905279750606096,"4":-0.39871893325438656,"5":-0.03169138529761109,"6":-0.007546158236437271,"7":0.20290906080169732,"8":0.16986359640357523,"9":-0.042729579846000815,"10":0.204076554836084,"11":-0.042809685766346695,"12":-0.039099871929905716,"13":-0.08017305122237167,"14":-0.03226394251136171,"15":0.10430074726888278,"16":-0.13302224880233146,"17":-0.010218069310980814,"18":-0.2564033018617366,"19":0.2888939973057246,"20":-0.24467466993997433,"21":0.09112068029963981,"22":-0.0666241048475336,"23":-0.23110317100886899,"24":0.13178276658088695,"25":-0.22605747112779834,"26":0.18629430690935947,"27":-0.2501766434891307,"28":0.3029123057101957,"29":-0.02628648242102458,"30":0.11787196174204956,"31":0.012836999175937159,"32":-0.09719262377045801,"33":-0.2382842656483152,"34":-0.4194356931811815,"35":-0.058802023377868995,"36":0.11151459714269463,"37":-0.09770880336230997,"38":0.35737696213268155,"39":-0.0179350566449439,"40":-0.2460014506210394,"41":-0.09405039596226741,"42":-0.10654166325645169,"43":-0.19504588059110672,"44":-0.05117353158988387,"45":0.1720022068651104,"46":0.06080685127577555,"47":-0.07951429453911862,"48":0.02539744901246944,"49":-0.17407363636713902}},{"sx":1,"sy":1,"depth":50,"w":{"0":0.03551826917913693,"1":-0.08289712886555092,"2":-0.1056226223198272,"3":0.03370676957100911,"4":-0.4779179387612695,"5":-0.035760624348574535,"6":0.1863698675814596,"7":0.054053191712667606,"8":0.15742284781080332,"9":-0.05070373114683029,"10":0.07946889147589928,"11":0.015535190603998664,"12":0.041845815183222695,"13":-0.16240647663493868,"14":0.021158349637558038,"15":0.0762626082676448,"16":0.08482888918207722,"17":0.21806887389790597,"18":-0.26552786381617777,"19":-0.07667818539804414,"20":0.1882339532386724,"21":0.2836347206476889,"22":0.2913946552453587,"23":0.14377237634843515,"24":-0.10413801458461007,"25":0.14868678892978576,"26":0.12481031488260559,"27":0.13447354034286685,"28":0.2272333369431702,"29":0.1056837366291396,"30":0.20948334270340546,"31":-0.28142430636622895,"32":-0.00580147163862684,"33":0.24639697231303773,"34":-0.8379138868990684,"35":0.1568328866381952,"36":-0.08963877512048153,"37":-0.022767701029849076,"38":0.0018863510005105346,"39":-0.003998946548847826,"40":0.16451651392195885,"41":0.05968518166289944,"42":-0.22808879424670886,"43":0.2398475562378808,"44":0.11233711512773449,"45":0.013295745850331603,"46":-0.03495937736286287,"47":0.2407579897846466,"48":-0.1357693017965716,"49":-0.07936021823610215}},{"sx":1,"sy":1,"depth":50,"w":{"0":0.13942596354532463,"1":-0.10396038762034396,"2":0.0931690224957063,"3":0.04679132818660013,"4":0.22711748238388577,"5":0.0973047382315531,"6":0.05661338212318585,"7":-0.12479497282727925,"8":-0.12321381963198505,"9":-0.24861717610671735,"10":0.05643641021296996,"11":0.024993837388854235,"12":0.28030669940435904,"13":0.08827628714727455,"14":0.22642539112161714,"15":0.18590785476888533,"16":-0.011105046344712875,"17":-0.054305200854120474,"18":-0.04518497155093006,"19":-0.02558827554830573,"20":-0.04004620173051428,"21":-0.007557731132488833,"22":-0.005568439833203466,"23":0.02540652841822331,"24":-0.16221873674853396,"25":0.18766670026277968,"26":-0.173769084833733,"27":-0.1720927124700364,"28":-0.2256888280855913,"29":-0.05516316154209278,"30":-0.1578176717348719,"31":0.16256293167418503,"32":0.01843440256178535,"33":0.16125963692109427,"34":0.05273484597811964,"35":-0.004516214603993224,"36":0.25437911854071793,"37":-0.0773943725695647,"38":-0.036300805445516615,"39":-0.007807090661898893,"40":-0.12075184596843677,"41":-0.18283366696486722,"42":0.08575310195884936,"43":-0.23321734500162106,"44":0.10977960467474068,"45":0.02461910482283588,"46":-0.25693848903401334,"47":0.1556916457185901,"48":-0.11908636367782649,"49":0.14542535350101574}},{"sx":1,"sy":1,"depth":50,"w":{"0":0.019961881251549938,"1":-0.0267357472308132,"2":0.21635364835660043,"3":0.02171145678163902,"4":-0.00009582150732502649,"5":0.008364665710654697,"6":0.16231803123041139,"7":0.0008600295165596773,"8":0.13383570149962196,"9":-0.018537478249154308,"10":0.08385659748143946,"11":0.15556502403213263,"12":-0.054225051114398994,"13":0.03505464488465609,"14":0.07140379977366462,"15":-0.09581734469253701,"16":-0.1970837418490019,"17":0.07350712394397795,"18":-0.13665661569605805,"19":0.11113420599185164,"20":-0.05870391628828145,"21":0.007045593948075341,"22":-0.24862858011754493,"23":-0.11326790609468933,"24":0.05024312255203497,"25":-0.08875193639927054,"26":-0.1544889778517772,"27":0.12193937443673314,"28":-0.0758829105123745,"29":0.2347180213939638,"30":-0.13272056368321328,"31":0.20405002474905784,"32":0.25305085309085373,"33":-0.047336284210473575,"34":0.23034166752949256,"35":0.021754842383776365,"36":0.10065150915905575,"37":-0.22377213284499406,"38":-0.3147717673141725,"39":-0.15330401513127065,"40":-0.08775917948436436,"41":-0.04249726893085562,"42":-0.24410800852106734,"43":-0.020810373042941314,"44":-0.12238160112271394,"45":0.02581403036112012,"46":-0.17158223278700627,"47":0.0014765044067302374,"48":-0.08077394036566922,"49":-0.04873875455565132}},{"sx":1,"sy":1,"depth":50,"w":{"0":-0.26229440036532903,"1":-0.11284148179372486,"2":-0.06354893371849307,"3":-0.06362938597707371,"4":0.2677862511067971,"5":-0.27181071501960347,"6":0.05082047482391826,"7":-0.1418458244123987,"8":-0.05277163096534547,"9":0.02476205158898982,"10":0.2002480354683414,"11":-0.1878010309956615,"12":0.01825931500896018,"13":-0.17228128851385618,"14":-0.38114235849042943,"15":-0.002784446287222917,"16":0.13561157233850854,"17":-0.14513342444075855,"18":-0.2212817785030487,"19":-0.06847653313341223,"20":0.10940195541991912,"21":-0.12327498451173903,"22":-0.10012950076112319,"23":-0.035993096454519174,"24":0.009886955713963256,"25":0.0175776234422984,"26":-0.16889823774866236,"27":0.12187145531177897,"28":0.0492197865938888,"29":-0.06889469519726805,"30":-0.25115458916162525,"31":0.06030587226864463,"32":0.19125906671222476,"33":0.03833959803427984,"34":0.017857818342216024,"35":-0.003062532959751591,"36":0.019369083671665673,"37":-0.11548584240889384,"38":-0.08782845808883516,"39":-0.11037833507156218,"40":-0.07936204589104694,"41":0.11585941767072719,"42":0.07664149453305501,"43":0.06062821357481195,"44":0.16214580275639945,"45":0.05206729325322642,"46":0.012698706147880223,"47":0.02801143853549678,"48":-0.2621427806960387,"49":-0.20635579366600515}},{"sx":1,"sy":1,"depth":50,"w":{"0":-0.16235316824922644,"1":0.10335593480489845,"2":0.014352782361511359,"3":-0.11732599660166033,"4":0.11494955400878315,"5":-0.08610760875987565,"6":0.11440641061417002,"7":-0.25619822497078315,"8":0.18466100361713003,"9":-0.2753631278220446,"10":0.02323443468268898,"11":-0.08981073420457708,"12":0.1380404458368502,"13":-0.18592008501061302,"14":-0.020795087782752998,"15":0.02365852205099358,"16":-0.1838086743944361,"17":0.24651701682009605,"18":0.06839957713563671,"19":0.10628381368818828,"20":0.1540760573684429,"21":0.0015274235395207985,"22":0.02037253027116811,"23":0.010526701316146869,"24":0.01779602027171418,"25":0.1440277084539917,"26":-0.2791332792301593,"27":0.22081012117706345,"28":-0.23692954822009338,"29":-0.1844181953475866,"30":0.06353780850095084,"31":0.1660136352413923,"32":0.057092061831077956,"33":-0.1891548882625298,"34":-0.14229976904733707,"35":-0.03502581665788767,"36":-0.10455550777391405,"37":-0.2948008592315512,"38":-0.18556833623440294,"39":-0.07327217581665103,"40":0.2777825102339893,"41":-0.1396919908502128,"42":-0.017164683041776856,"43":-0.022711484283870785,"44":-0.10446338324211593,"45":0.06961226839761533,"46":0.06297384803767957,"47":0.03876722994010296,"48":-0.02946975346742125,"49":0.12504713224993472}},{"sx":1,"sy":1,"depth":50,"w":{"0":0.0366661292279892,"1":-0.23553170760282763,"2":0.04199120646955603,"3":-0.18574714417202778,"4":0.0276977295133861,"5":-0.07733188388192674,"6":-0.3525053542603021,"7":0.06590686369574598,"8":0.01976951866236437,"9":-0.14026814216742137,"10":-0.32699677953885836,"11":-0.04158633498352653,"12":-0.19566837225548359,"13":-0.14282135990105888,"14":0.13811739324714484,"15":-0.05220413152175114,"16":0.00041455959476013117,"17":-0.1628174522920516,"18":-0.19544414269343346,"19":0.2096185838880115,"20":0.21611962679875701,"21":0.13547193720696588,"22":-0.023678626264597834,"23":0.37136877605097085,"24":0.10970027631036469,"25":0.10140878717567285,"26":0.09090445269822203,"27":0.05355439372826276,"28":-0.0070542550014876205,"29":0.2792055756798021,"30":-0.06178271554454006,"31":0.022965924662425606,"32":-0.11469352160055293,"33":0.0019048221922992668,"34":0.1101638254189191,"35":-0.280109488283057,"36":-0.12491158526192153,"37":0.06943786283251102,"38":-0.1025565492341597,"39":-0.16128449725886967,"40":0.1987921027669364,"41":-0.1276729004937778,"42":-0.01682459785653779,"43":0.11062531594488917,"44":0.028334902058970858,"45":0.3693704798555502,"46":0.025029358682649504,"47":0.1702257865796326,"48":0.01994104485993894,"49":0.0338769913272637}},{"sx":1,"sy":1,"depth":50,"w":{"0":0.07133237834651841,"1":-0.19347584392087272,"2":-0.215695100255155,"3":-0.046949136918733196,"4":0.07158809683740555,"5":0.10142191554713112,"6":0.27870732528785896,"7":0.0031706141777111175,"8":-0.028356383427116376,"9":0.019350369420409835,"10":0.34587596014495625,"11":-0.06813892688839089,"12":0.15929934117022035,"13":-0.0698349998322552,"14":-0.019920483455015067,"15":0.0927853862014216,"16":-0.03623365079119517,"17":0.11710075388112985,"18":0.384132984919691,"19":0.2094071190796358,"20":0.04656887455259004,"21":-0.12260847822680435,"22":0.43949163928469004,"23":0.03420562369253326,"24":-0.2258864199532593,"25":-0.2928601720989233,"26":-0.18241878386884908,"27":-0.01301837735428297,"28":-0.18295548328841782,"29":0.0755963465873305,"30":-0.08445118121399016,"31":-0.2160417777823109,"32":-0.02879504699062321,"33":-0.15327025461003693,"34":-0.2527548623950444,"35":0.25445621266879537,"36":-0.12867065403417105,"37":0.06707832016676162,"38":0.11741639757655102,"39":0.13869254915582677,"40":-0.08205423075976434,"41":-0.04597339257673388,"42":-0.005257336917924834,"43":-0.12639770086797933,"44":-0.18590578402329502,"45":0.051269802183898316,"46":-0.23177619452054726,"47":0.1580410405354351,"48":0.0994779681139713,"49":-0.018439255462840982}},{"sx":1,"sy":1,"depth":50,"w":{"0":-0.04296713122289234,"1":0.18342782399376273,"2":-0.0453181493191312,"3":0.14347079886000833,"4":0.2684422610903573,"5":-0.03257998726165173,"6":0.04975988164241769,"7":-0.0959726588199163,"8":0.17119432835341986,"9":0.055542272592288965,"10":-0.17321472032576715,"11":0.061337713077187495,"12":-0.02064463497191875,"13":0.17461343154674325,"14":0.09814819224406127,"15":-0.24968622034183266,"16":-0.10942818647875785,"17":-0.10606810356374724,"18":0.1242497799464493,"19":-0.04289268974545002,"20":0.1749838520194716,"21":0.09559014134625224,"22":-0.12178289356383491,"23":0.25607237474674266,"24":0.03733164141209353,"25":0.19442564765717052,"26":0.0731838341055184,"27":-0.048521931077720834,"28":-0.2412124599385497,"29":-0.1933338281255179,"30":0.16843124948529006,"31":0.11418783079945016,"32":0.32939933909656455,"33":0.009669807482709505,"34":0.31760935648080646,"35":0.011885376736679486,"36":-0.06344080303004208,"37":-0.0025547778109046553,"38":-0.07628222358128511,"39":-0.03831651099051208,"40":0.2644331263944767,"41":0.020593724893838188,"42":-0.034828427377529295,"43":0.30408658195566945,"44":0.07853179246543725,"45":0.19709986194421764,"46":0.114181538999247,"47":-0.2213709023392443,"48":0.10004830679666336,"49":0.23462668058176359}},{"sx":1,"sy":1,"depth":50,"w":{"0":-0.30404323733002103,"1":-0.18457888578988954,"2":0.17575222025860693,"3":-0.114966219768479,"4":-0.05394750715273369,"5":0.3651421173884008,"6":0.27982041859608076,"7":0.6074893645716204,"8":-0.021207338430462866,"9":-0.02839542699965304,"10":0.052479522987478905,"11":0.017950331942703734,"12":-0.5388358050025829,"13":0.3832743442752073,"14":-0.5758704732163328,"15":0.6659410002820195,"16":-1.0638962185540424,"17":0.011478980585560109,"18":-0.06478047108471804,"19":0.04832942254234375,"20":0.14322965336732443,"21":0.0000625609592616302,"22":-0.8710540637349475,"23":0.222923021572735,"24":-0.028137301578708133,"25":0.017279680315210027,"26":-0.3840200674491445,"27":-0.05129628571515992,"28":0.5492830298926159,"29":-0.14509985183776317,"30":0.6551937605235,"31":0.03768066046189729,"32":-0.47662020138667577,"33":-1.6712082058171902,"34":0.14588081945567638,"35":0.7185201790525909,"36":-0.04073335834138039,"37":-0.4394864058814078,"38":-0.7759045787717918,"39":-0.015176067833280965,"40":-0.006359677810441426,"41":0.22058282780862112,"42":0.09128336533357148,"43":0.05864187499652103,"44":0.05061989740356668,"45":0.3741321803755774,"46":0.3104757971441781,"47":0.6024057858070789,"48":-0.14717977018101688,"49":0.04947595229722712}},{"sx":1,"sy":1,"depth":50,"w":{"0":-0.059771422473617754,"1":-0.15107305108016972,"2":-0.13877430339449076,"3":0.20186375889652514,"4":-0.3603540763707334,"5":-0.026359630603493098,"6":-0.31118613047461113,"7":0.38022022449325593,"8":0.11293123390908202,"9":0.060797688396351926,"10":0.28846424473895954,"11":0.08908496486151472,"12":0.129283350805234,"13":-0.2856702604375009,"14":0.04570538147088782,"15":-0.019041872285669715,"16":-0.008649331118207792,"17":0.17368848986997373,"18":-0.1493876469189491,"19":-0.08066546992772108,"20":0.02240624311686513,"21":0.2677745145897847,"22":-0.004111457177392172,"23":0.23760774090542458,"24":0.06601796357329416,"25":-0.03295533718648646,"26":0.10364744334688852,"27":-0.10085082913733119,"28":0.17241526441919577,"29":-0.0640714939686156,"30":-0.09045178908791676,"31":-0.09383561281625284,"32":-0.2789572387972456,"33":0.030483116128160546,"34":-0.06308769337192005,"35":0.01425895873860724,"36":-0.10778218381330061,"37":0.13679920789108477,"38":0.1099589849979118,"39":-0.13189338304160353,"40":0.06425478774746204,"41":-0.1836076487195116,"42":-0.027984186253532883,"43":0.04382336892433903,"44":0.31630519263442325,"45":0.36778336943800344,"46":0.05455273002422182,"47":-0.11975433550440903,"48":-0.23316366658322088,"49":-0.2654051655103737}},{"sx":1,"sy":1,"depth":50,"w":{"0":-0.1527348946901773,"1":0.00249486528666124,"2":-0.10916161200501698,"3":-0.08111742149239583,"4":0.09752196300616918,"5":0.018680185564285513,"6":0.0074249079159168325,"7":-0.15256806615279742,"8":-0.20088755816683615,"9":-0.07870446337175803,"10":0.061373079646602526,"11":-0.005298658539221325,"12":-0.09873943179725238,"13":-0.011905240721944956,"14":-0.1104752891265194,"15":-0.06254538398543802,"16":-0.06189938016183548,"17":-0.02151739541952424,"18":0.035005169557743326,"19":0.05796010212119508,"20":0.10205061968209658,"21":-0.06513477426423836,"22":-0.09968846792892341,"23":0.08079684324547304,"24":0.0705014550174096,"25":0.0756238975930216,"26":-0.16838858440687146,"27":-0.02119088747191679,"28":0.12115580098233023,"29":0.06332820598870068,"30":-0.07249595173987475,"31":0.045052347730689904,"32":0.01406626693894557,"33":-0.01914979584108526,"34":-0.1213872418461563,"35":0.04602168988281831,"36":-0.11509627522197538,"37":-0.10659261731772407,"38":0.08446562991709033,"39":0.17939461471715049,"40":0.05882074020899961,"41":0.12202550171378698,"42":-0.059684090763089254,"43":0.08254088432709421,"44":-0.0790631426986676,"45":0.05065355043653103,"46":0.1267573864255915,"47":0.029630429204693425,"48":-0.05740406235200415,"49":0.006426369129506883}},{"sx":1,"sy":1,"depth":50,"w":{"0":0.0190220167416329,"1":0.039720220497698785,"2":-0.1948802102380684,"3":0.05452188353610562,"4":-0.3520154976819024,"5":0.21055951681199497,"6":-0.10143241506930038,"7":0.05822912450353176,"8":0.08960221559105488,"9":0.29154906639456424,"10":0.26376189715751786,"11":-0.1419207124355291,"12":0.004074203642339048,"13":0.20416197663326344,"14":-0.1996197571909342,"15":0.0654510323716803,"16":0.11925447149633989,"17":0.10005695976951191,"18":-0.09874405729159653,"19":0.08297444497899605,"20":0.03556982732434756,"21":0.13854525649134797,"22":0.45138805843457835,"23":0.0450394025406152,"24":-0.10212337646941334,"25":-0.11314039199486606,"26":0.1418054439374739,"27":-0.040766098133919584,"28":0.10616455047601055,"29":0.1844236836494207,"30":0.09401975937403326,"31":-0.07148012489237081,"32":-0.29827290170023496,"33":-0.08960554993112725,"34":-0.34382540243544496,"35":-0.16744497327764066,"36":0.10468108044248482,"37":0.17580828163518575,"38":-0.047687574740520655,"39":0.008924023328471118,"40":0.02702334309763417,"41":-0.009998870159429678,"42":0.01665145893044725,"43":-0.14809612813083461,"44":0.09932743514861456,"45":-0.5026024072468417,"46":-0.10021201246674329,"47":0.17552133183903892,"48":-0.12726861511846627,"49":-0.07424209496210851}},{"sx":1,"sy":1,"depth":50,"w":{"0":0.03368455589577568,"1":0.018922554272725624,"2":0.14226724613874753,"3":0.04443766168284103,"4":0.01309043331272618,"5":0.21781847060159434,"6":-0.22238679872179296,"7":-0.08406900592319612,"8":-0.2648652560004178,"9":-0.28302314875234047,"10":-0.11779635716640843,"11":-0.1032794879574116,"12":-0.09872167878973265,"13":-0.03266221882214818,"14":0.163721443747993,"15":-0.08247234148548842,"16":-0.029651527431249915,"17":-0.14334354544397448,"18":-0.024820583124217154,"19":-0.016256718946918488,"20":0.15114936678684396,"21":-0.0730613345873824,"22":-0.10125540281634028,"23":-0.06707729442278659,"24":-0.015505640600898755,"25":0.19998272187473756,"26":-0.1958173463950529,"27":0.042025430352814586,"28":0.0646852617469801,"29":0.1509448369745242,"30":0.07000308395928806,"31":-0.22996562675801574,"32":0.007210766768359775,"33":-0.11361952827723408,"34":-0.14241243475845955,"35":-0.38061064665844874,"36":0.015434214673569185,"37":-0.08033508022392774,"38":0.0026463838045741755,"39":-0.18450121800126443,"40":-0.12200901883642466,"41":-0.04002080329151291,"42":-0.1320723694210588,"43":-0.07347265443724017,"44":-0.02147839743286324,"45":0.3231828703397108,"46":-0.02550778659346056,"47":-0.0018082803755400353,"48":0.051905590843305836,"49":0.16652776387731552}},{"sx":1,"sy":1,"depth":50,"w":{"0":-0.026334682948684948,"1":0.09732988671103412,"2":0.07919213484158848,"3":-0.1256236802209176,"4":0.016999190419774747,"5":0.1319473198417373,"6":-0.08335402961939374,"7":-0.01029351317735272,"8":0.21439268397568964,"9":-0.015029005113539398,"10":-0.1544885696511348,"11":-0.06520185183975602,"12":0.14330796710345237,"13":-0.2627955212970315,"14":-0.16940553321370638,"15":-0.07538049201262854,"16":0.03420037225938053,"17":0.16553276860339092,"18":0.025276581708989217,"19":-0.15637730119987225,"20":-0.1305575375499638,"21":0.11414357688786428,"22":-0.259154689968383,"23":0.05575215988060046,"24":-0.05123142661808199,"25":0.3009094057725316,"26":-0.06228836939270225,"27":-0.16201293209129694,"28":-0.04610999170932518,"29":-0.11234447005360879,"30":-0.07591116559652554,"31":0.06571386468769456,"32":0.1091998267796033,"33":-0.1565828876384184,"34":0.18363506054325715,"35":-0.18768961263083472,"36":-0.03831428759080745,"37":0.33230666211730975,"38":0.11689434915512087,"39":0.1912539329793797,"40":-0.17367234184365699,"41":-0.021252000347833828,"42":0.2952087052142625,"43":0.06518204048643293,"44":0.027188542275013793,"45":0.21008842552774074,"46":0.0455378877583337,"47":0.09868671382243428,"48":0.031603002876324705,"49":-0.049313278514068255}},{"sx":1,"sy":1,"depth":50,"w":{"0":-0.010818732150973292,"1":-0.1558219003996718,"2":0.19614863582214756,"3":0.019271182697469243,"4":0.12474866443996054,"5":0.08717696372771991,"6":0.06865817234736184,"7":0.0659068788649438,"8":-0.11776058534602492,"9":-0.03269772809608052,"10":0.05887217885181667,"11":-0.17918583972063562,"12":-0.10871260203630599,"13":-0.06969059824412015,"14":-0.17733730862509173,"15":0.006125332430046646,"16":0.06416550673366704,"17":0.42633813212254584,"18":-0.00562866036320774,"19":0.06338537558026643,"20":0.26138248910102185,"21":0.06344419024851468,"22":-0.0795633867937751,"23":-0.18554977648079446,"24":0.061467678607076505,"25":0.10679476943978955,"26":-0.18045549900080662,"27":-0.05724851425370196,"28":-0.1676201874859724,"29":-0.020085928643511226,"30":0.05112846522214768,"31":0.11016348534231019,"32":0.06862025974944237,"33":0.05354650124127584,"34":0.05829029191099087,"35":0.033611926238794526,"36":0.23862289665818334,"37":0.03563546742276351,"38":-0.03932016666790443,"39":-0.20135388428820813,"40":0.29622058072102603,"41":0.0022617851204992166,"42":-0.11597655518911948,"43":-0.28561050938319715,"44":0.0007630135833660185,"45":0.1262896097601207,"46":0.04682834929154839,"47":-0.09076694198389401,"48":0.03790788039657195,"49":0.14499205170166124}},{"sx":1,"sy":1,"depth":50,"w":{"0":0.34206148733955627,"1":-0.13700623159336747,"2":-0.09344485987118781,"3":-0.057406401599436364,"4":-0.04414504417823601,"5":-0.12816325171502035,"6":-0.22495290956218064,"7":-0.06885136662472102,"8":-0.07161266643635095,"9":0.052852465946665136,"10":-0.007705803226090976,"11":-0.017983155626635276,"12":-0.021144873911546947,"13":-0.051530024062934214,"14":-0.04437621587943886,"15":-0.02256289318978247,"16":-0.2548544537862705,"17":-0.13523179226230703,"18":0.0015559529388756153,"19":0.06629609455009304,"20":0.030172538293826198,"21":-0.21746892239235782,"22":-0.12107907729892842,"23":0.1622723812334527,"24":0.11131087787849941,"25":0.09315129164023696,"26":0.3566554975145325,"27":-0.12608124427665296,"28":0.1209751183169708,"29":0.24182502654587112,"30":-0.17380811822541115,"31":0.014210313778378546,"32":0.013928908257776056,"33":-0.007999487629332315,"34":0.08618497036798337,"35":0.11126023780212713,"36":0.11116262936223542,"37":-0.19550553368971793,"38":-0.08668046291845695,"39":-0.08256051946424026,"40":0.20366172405705474,"41":-0.10390122083371477,"42":0.06643806009823518,"43":-0.012430900869301707,"44":-0.10211636677156105,"45":0.20405454913166574,"46":-0.07919883638934729,"47":-0.13854889041421115,"48":-0.1599044605877571,"49":0.11697290643830796}},{"sx":1,"sy":1,"depth":50,"w":{"0":0.020700093007988883,"1":0.049566547989768055,"2":-0.08238396191777823,"3":-0.29997021610515273,"4":-0.03999323687399345,"5":-0.09034830254877978,"6":-0.34604889170144715,"7":-0.7859813210424953,"8":-0.3095855516888029,"9":0.21656068795959743,"10":-0.6330504402262715,"11":-0.3109500658459421,"12":0.27350651281399774,"13":0.05728080951788651,"14":0.545804796934288,"15":-0.9625870234034858,"16":0.5383098965061905,"17":-0.7238987872617378,"18":0.20219088238729235,"19":0.9778752027247305,"20":-0.18847218325524653,"21":-0.4853005355583099,"22":-0.24769773884596163,"23":0.4635677506035344,"24":0.08911726805084755,"25":-0.27182735584610507,"26":0.26236489924801015,"27":0.11529675210687193,"28":0.6230175168350899,"29":0.3031627387704951,"30":0.014562706704213467,"31":0.04639804006605596,"32":-0.8853910580036822,"33":-0.6642900802323403,"34":0.3117447427933165,"35":-0.19422493664420432,"36":-0.010618675998875865,"37":0.09490636234405553,"38":0.45152609356468304,"39":-0.08626939289265881,"40":0.08819487422719854,"41":0.306812252168199,"42":-0.06519140448558171,"43":0.23161902577146584,"44":-0.012912071367981445,"45":0.6803627616891657,"46":0.1856219610980496,"47":0.7704714436019433,"48":-0.4247826957581738,"49":0.12921067318470383}},{"sx":1,"sy":1,"depth":50,"w":{"0":-0.08854110805495509,"1":-0.08672133561167207,"2":0.09805127188928471,"3":-0.015740472102350564,"4":-0.08924886567981638,"5":-0.06571912751229035,"6":-0.03703734223908203,"7":-0.010740461166349635,"8":-0.03831988203907408,"9":0.07719622873488008,"10":-0.09466430712222595,"11":-0.1723250057751469,"12":0.18897833131113898,"13":0.08927518993612812,"14":0.11787704347776076,"15":-0.02049269207575221,"16":0.011482650437630084,"17":0.07805341619290664,"18":-0.11612519500519007,"19":-0.4347708562587527,"20":0.12337481928121037,"21":0.07500065526457045,"22":-0.18631140781891653,"23":0.13986382165899625,"24":0.01802647895683019,"25":-0.00542305689946618,"26":0.12320589343578803,"27":-0.14022911185752202,"28":-0.045347603893004025,"29":0.02555736463246821,"30":0.07347534945576666,"31":-0.02666855891449249,"32":-0.034619048895245405,"33":-0.1907701918024714,"34":-0.057603553611372156,"35":0.1834002412140612,"36":0.16959116962847803,"37":-0.01280565874233637,"38":0.21552501564457877,"39":-0.015482815774360182,"40":0.21752488263392866,"41":-0.08002068853075887,"42":0.007082173676175559,"43":0.060636684392118334,"44":-0.2527245424802679,"45":-0.11861823571500195,"46":0.010937830521021458,"47":0.0766857528536248,"48":-0.01315623987004435,"49":0.054104068020568816}},{"sx":1,"sy":1,"depth":50,"w":{"0":-0.06192678169377202,"1":0.1782696412159593,"2":-0.19139788573339409,"3":-0.06779738305357413,"4":-0.3421175909230297,"5":-0.2750361298298707,"6":-0.16371440787473926,"7":-0.014338120371057519,"8":-0.052716007186723556,"9":-0.0069164925959863816,"10":0.1855370048781244,"11":0.019978098192808193,"12":-0.011224281128318928,"13":-0.17817634744935956,"14":0.16405672345056493,"15":0.04159584352388292,"16":0.057546279455370615,"17":-0.19901726578111872,"18":0.030513915612776846,"19":-0.10349568896903627,"20":0.12281584100635454,"21":0.27991415317250173,"22":0.19801518116228548,"23":0.26401755237076524,"24":0.1592338967345505,"25":0.04051000164565361,"26":0.18553609410481547,"27":0.18768193202023983,"28":0.17869990961541637,"29":-0.03300260638415393,"30":0.09596904973994433,"31":0.012741037058702196,"32":0.07951721231441837,"33":-0.09874101448979625,"34":-1.0117065550836721,"35":0.009276436600341297,"36":-0.11255249197308577,"37":-0.1512051804824618,"38":-0.19946320289421296,"39":0.162377012537966,"40":-0.04539037780404064,"41":-0.15693949531033827,"42":0.055196020017685254,"43":0.2898283938018142,"44":-0.06032220682544132,"45":0.05854139529987612,"46":0.24534570791654636,"47":0.0951564227271069,"48":0.011627528320750648,"49":-0.23016284590044014}},{"sx":1,"sy":1,"depth":50,"w":{"0":0.11592271606363105,"1":-0.2892850095113433,"2":-0.19300531438288132,"3":-0.06349579430458124,"4":0.04595315688181912,"5":-0.1506663805172056,"6":0.015290120162023633,"7":0.06820063021918005,"8":-0.06521372663626482,"9":0.01117943313727263,"10":-0.006520238524475576,"11":0.1534899633379308,"12":-0.21577799117388807,"13":-0.043166787420351405,"14":-0.08375014628439734,"15":-0.10128287563593379,"16":0.04831224099820991,"17":-0.21682267021173524,"18":-0.21086106179381184,"19":-0.1645301478411846,"20":0.06352994944963705,"21":0.02337876906171364,"22":0.02903183338123952,"23":0.04476996763060466,"24":-0.019239486845074573,"25":0.03145133815819929,"26":0.04542593511267874,"27":-0.009522608775086932,"28":0.09445140218948583,"29":-0.21880406923192983,"30":0.13142626017815467,"31":0.15482368191958393,"32":-0.1159678843518898,"33":0.0022574006695744338,"34":-0.0755947588048988,"35":-0.21050944903507712,"36":-0.1182924298036062,"37":0.10184076410249131,"38":-0.0925817953903329,"39":-0.14057663808556256,"40":-0.044100602231518335,"41":0.19039049353247536,"42":0.2915782638555504,"43":0.09678491267881631,"44":-0.15353597768295885,"45":-0.007128934766035566,"46":0.29572056523156215,"47":0.0880162250640675,"48":-0.09864159629588659,"49":-0.04228116041088678}},{"sx":1,"sy":1,"depth":50,"w":{"0":0.12543125490312132,"1":0.12377761493026064,"2":0.2956142542128028,"3":-0.29206169864416853,"4":0.5484112726362582,"5":0.10461107146385196,"6":-0.11957347440026389,"7":-0.22835124032840076,"8":-0.07183480746388417,"9":0.3204186436758597,"10":-0.22079702865947035,"11":0.08000897529426013,"12":0.30307857860571197,"13":-0.004304668642527479,"14":0.2773135580841031,"15":-0.025019198816849067,"16":-0.01438272773416078,"17":-0.13692219373043396,"18":0.08610250508100961,"19":0.05850344963896157,"20":-0.03869168161183471,"21":0.03844907802858365,"22":-0.14458071459857944,"23":0.17060900735221873,"24":-0.34979725776394943,"25":-0.043863701414316926,"26":-0.04729672653745596,"27":0.33295183331309564,"28":-0.23882267480365174,"29":0.1073093374368886,"30":0.05722424841043623,"31":-0.02658473460247575,"32":0.09197364029736854,"33":-0.23886121880381508,"34":0.024699275130605873,"35":-0.2699232680482942,"36":0.14676493155001774,"37":0.14315093500258694,"38":-0.1265134839552931,"39":-0.05621996702224502,"40":0.3844355794682876,"41":-0.012598020549635157,"42":0.10249117270874172,"43":-0.16829066125150682,"44":-0.028289446455829988,"45":0.39080624902756833,"46":0.18147530977869014,"47":0.10708882042057676,"48":-0.22265185814221333,"49":0.10146851610914892}},{"sx":1,"sy":1,"depth":50,"w":{"0":0.0201086161090406,"1":0.24004609026947116,"2":0.24955243445969147,"3":0.06051279857632778,"4":0.43171749797933645,"5":0.15218240841473624,"6":0.12026144164718966,"7":-0.21893395727111625,"8":-0.040838415450832284,"9":0.17946204538101962,"10":0.023267553685662454,"11":0.05111280899564791,"12":-0.06448521313647035,"13":0.008278777016689864,"14":0.02867422467775847,"15":0.22722829995249164,"16":-0.06189248861760484,"17":-0.06009271398986342,"18":-0.20031736612548165,"19":0.5308340789128921,"20":0.41003525870666024,"21":-0.18740219049334392,"22":-0.06087965620309339,"23":-0.23725354415347277,"24":-0.11379795079905809,"25":-0.061112358708730205,"26":-0.10403427814447581,"27":0.047788682348305536,"28":-0.07317196376171275,"29":-0.004570987964134935,"30":0.07431411053076205,"31":0.083068592446502,"32":0.0659413752112225,"33":-0.3382170826870072,"34":0.015993412232754498,"35":-0.28544308207703184,"36":-0.115921026556889,"37":0.014176361617475793,"38":-0.06933062779468328,"39":0.04781172165616706,"40":-0.07608497734159209,"41":0.12282869671329134,"42":0.09158530036246938,"43":-0.2902461035006865,"44":-0.06878080100013745,"45":0.3706680765025319,"46":-0.07156019545114371,"47":-0.00519328484937914,"48":-0.23353177914638829,"49":0.09700049265468852}},{"sx":1,"sy":1,"depth":50,"w":{"0":-0.013809249387510486,"1":0.05538280274902058,"2":0.04069204755486957,"3":-0.22692445592627505,"4":-0.13523087088421018,"5":-0.2250476641858971,"6":-0.00658766694475557,"7":0.08846610492753573,"8":-0.04259850554175269,"9":-0.22598133213409785,"10":-0.0011212532929123682,"11":-0.18445072975468538,"12":-0.20946858719452585,"13":0.0809041674227036,"14":0.08186624714073251,"15":0.20818063181455582,"16":-0.14924200771556748,"17":0.0394099880584134,"18":0.11780448429210047,"19":0.08515778492492511,"20":-0.05169628628161024,"21":0.17454470644809392,"22":0.038850012951899326,"23":-0.0643009013835931,"24":-0.12469628499547322,"25":-0.034571583559566896,"26":-0.06339500190156297,"27":-0.09510559027833926,"28":-0.0030661043455792285,"29":0.11497967956947389,"30":0.2754394939787719,"31":-0.07431345350251815,"32":0.044741004738078176,"33":-0.02960796928067392,"34":-0.09848791754653959,"35":0.08869574964156575,"36":0.13313512199909552,"37":-0.1220313299236724,"38":0.021999018024619333,"39":0.013374975743203885,"40":-0.1311570855427726,"41":0.032485865269337465,"42":0.18847609352615916,"43":0.3729116024245749,"44":-0.09568337466034692,"45":-0.16171955927254372,"46":0.08149892515817266,"47":0.09792264774492497,"48":0.07242304911872326,"49":0.1632457162923735}},{"sx":1,"sy":1,"depth":50,"w":{"0":-0.013614801261305045,"1":0.07470145380977626,"2":-0.1813235629516671,"3":-0.10635540865554848,"4":0.07035877594782311,"5":0.27095231135233866,"6":-0.25324054845582344,"7":-0.17085261674527247,"8":-0.0684102760154108,"9":-0.47784279787589096,"10":0.15172943252054655,"11":0.05586601709221651,"12":-0.0022471537965104435,"13":0.21838514166889422,"14":0.1648951301271776,"15":-0.35706983588876595,"16":-0.13248369559145376,"17":0.17806615790853275,"18":-0.10750381436446176,"19":0.03999098154534094,"20":0.004766624321300608,"21":-0.064682409606165,"22":0.22553821347625924,"23":-0.06967678685555814,"24":-0.06134020620010243,"25":0.08204258235522711,"26":0.013308194274928412,"27":-0.12275243180285973,"28":-0.2188601860142673,"29":-0.09651060337352807,"30":0.30794480584063466,"31":-0.11765581954481953,"32":0.03809658461424716,"33":0.04979664075591096,"34":0.08210221990099971,"35":-0.028230793910697348,"36":0.17784418109108227,"37":-0.3253935730396308,"38":-0.0397541913124658,"39":0.11751759493751854,"40":0.03672012170279499,"41":-0.05102996095551702,"42":0.014156511081292457,"43":0.047190043362592485,"44":0.13826156789212588,"45":-0.06312474160918477,"46":0.15395350118003742,"47":-0.09518300745135173,"48":-0.0799046841123355,"49":-0.3482229796995401}},{"sx":1,"sy":1,"depth":50,"w":{"0":0.0624199371063425,"1":0.497443397656036,"2":-0.15939029181281153,"3":0.1442016705222879,"4":0.07385344302179657,"5":0.11841312056080855,"6":0.22771804656076544,"7":-0.1842702212090531,"8":-0.08464458766524396,"9":-0.23493396233743397,"10":0.2288947337712549,"11":-0.058852346104045154,"12":0.00828804076004276,"13":0.0838273024431363,"14":-0.04405278944404777,"15":0.17952310836731472,"16":-0.057537427086363946,"17":0.018914179298524167,"18":-0.42691558388001827,"19":-0.10623256008998949,"20":0.2316308456620892,"21":-0.045049136141824354,"22":-0.03208055336542343,"23":-0.2407217602589988,"24":-0.13332565990253076,"25":-0.02667549214128567,"26":-0.17300916477378667,"27":-0.07983460342377968,"28":0.22059330607590824,"29":-0.08808351455862277,"30":-0.08090720950838139,"31":-0.08057508852297166,"32":0.29723429324012335,"33":-0.14323529891481288,"34":1.0045069512081994,"35":-0.05554875889610107,"36":0.18562384672005103,"37":0.09941736583745954,"38":0.23014016040237006,"39":0.09185262564427543,"40":-0.07168133761375081,"41":0.11990474013100233,"42":-0.1365957131245102,"43":-0.17898054402624716,"44":0.06682587362065792,"45":-0.08913016136146042,"46":-0.18191090738674603,"47":-0.18867828510344437,"48":-0.046133494600772665,"49":0.04851713815558571}},{"sx":1,"sy":1,"depth":50,"w":{"0":-0.15739498307897487,"1":-0.2257408568595684,"2":0.22981923066392249,"3":-0.08451003291527476,"4":-0.23840463383883664,"5":0.05520256436446611,"6":-0.10897360479358398,"7":0.3500628285775222,"8":-0.21854799508669825,"9":0.046419441255871115,"10":0.12229558060323194,"11":-0.008453980083845677,"12":-0.04390477327066346,"13":-0.1365751563180649,"14":0.010657316701588782,"15":-0.06606611906482775,"16":0.29052556718779693,"17":0.04598578211647006,"18":-0.2036855892473805,"19":-0.06345417270222439,"20":-0.07421563488819956,"21":0.2394075675961391,"22":-0.09647750003815439,"23":0.13688425574866453,"24":-0.18936896025399041,"25":-0.2483604171088423,"26":-0.012714277682793797,"27":-0.08881094509541233,"28":-0.011309241474028614,"29":0.010399673010565453,"30":-0.34880744687110976,"31":-0.09028769939655677,"32":-0.1454111153388145,"33":-0.193246668325525,"34":-0.255896253427333,"35":-0.07202276386714387,"36":0.0409719102819709,"37":0.050796908579916505,"38":0.24568630612628542,"39":0.03261652084118,"40":-0.004670640040080536,"41":-0.07826297675218313,"42":0.04363396502504241,"43":0.011935320741227547,"44":0.19321715951629734,"45":-0.06721881050908689,"46":0.3260850245464681,"47":0.007613026906946819,"48":0.25024109130108885,"49":-0.14372767476131013}}],"biases":{"sx":1,"sy":1,"depth":50,"w":{"0":0.15501473365359306,"1":0.10561534752443456,"2":0.11946941689431179,"3":0.09054080618471187,"4":0.09269214358238557,"5":0.10781841103094349,"6":0.11786361008742034,"7":0.08404490930756131,"8":0.11265629217288017,"9":0.11510250095158003,"10":0.10683559963755661,"11":0.0980442034259489,"12":0.10853769807974159,"13":0.08432058133564865,"14":0.10849116180387966,"15":0.10404636252243701,"16":0.10577137268000356,"17":0.09893023365020615,"18":0.09281993094127967,"19":0.10676324467559012,"20":0.0954755751550098,"21":0.10738817562977733,"22":0.11510857551628666,"23":0.12467204106223577,"24":0.10926675427700211,"25":0.09202023181509714,"26":0.10271108304255006,"27":0.09989896869417166,"28":0.10881342868380371,"29":0.09426491299354624,"30":0.09981765441452976,"31":0.0813374362144014,"32":0.13005968652503028,"33":0.1100401381570417,"34":0.09605561173687792,"35":0.12126046258944016,"36":0.08880177688167988,"37":0.10061890134718679,"38":0.10174464040260339,"39":0.10598630801586537,"40":0.08020946980599562,"41":0.10062223686225545,"42":0.11176467818125492,"43":0.10738065020230059,"44":0.1275789065697098,"45":0.13401046420161583,"46":0.11870295890359087,"47":0.0989150272136426,"48":0.06163267783884112,"49":0.11381299711698571}}},{"out_depth":50,"out_sx":1,"out_sy":1,"layer_type":"relu"},{"out_depth":3,"out_sx":1,"out_sy":1,"layer_type":"fc","num_inputs":50,"l1_decay_mul":0,"l2_decay_mul":1,"filters":[{"sx":1,"sy":1,"depth":50,"w":{"0":0.5574351032063055,"1":0.6386223076760956,"2":0.5370456840129945,"3":-0.08772931283576987,"4":-0.6445236870419587,"5":0.007950515834884974,"6":0.36606316892470053,"7":0.21788785408382222,"8":-0.0700075289298088,"9":-0.3871049390837382,"10":-0.10739156622070821,"11":0.7284171830415435,"12":-0.18874282058823458,"13":0.20895252572030015,"14":0.17927011831546025,"15":-0.15488371592700462,"16":0.13472880397587694,"17":-0.15062972233176591,"18":0.056814147593987875,"19":0.1335883926900924,"20":-0.9316199712113512,"21":0.16501612874287738,"22":-0.09107525901200839,"23":-0.05767688134820764,"24":0.13327382006608685,"25":0.2370137014662706,"26":-0.07016248042334196,"27":0.08097140845908198,"28":0.19557421722677926,"29":-0.5522951820580008,"30":0.18615797035052387,"31":-0.3687915778040547,"32":-0.0389056087438873,"33":-0.298196665227194,"34":-0.24423023203282423,"35":0.6633834361017713,"36":0.2929929315006022,"37":-0.02490361874252902,"38":0.1555801945464452,"39":0.04699095603781012,"40":-2.754463015392566,"41":-0.12684960484859933,"42":-0.07347356458283694,"43":-0.013379950076879055,"44":-0.572531936276616,"45":-0.5790868979322763,"46":0.14549428400255804,"47":-0.12338412041543267,"48":0.054062892632932104,"49":0.027247975568390252}},{"sx":1,"sy":1,"depth":50,"w":{"0":1.4268174960274957,"1":0.08849894770857317,"2":-1.1334278567659575,"3":-0.014860519299501702,"4":0.21865120195132662,"5":0.3128284886568854,"6":-0.25929863114773655,"7":-1.2733922897518164,"8":0.35979020837940073,"9":-0.6481325499335533,"10":-0.40278758672948906,"11":-0.8261217077491999,"12":0.26101986291702406,"13":-0.5726696984640257,"14":0.36568898333247063,"15":0.06349107293170024,"16":0.26613777206247186,"17":-0.24404586210651322,"18":-0.48793716707320084,"19":0.25806521625368456,"20":-0.3293361467041763,"21":0.16295391334493703,"22":0.7737901097347011,"23":0.7306394574901333,"24":0.9803882332925965,"25":-0.5687552305273231,"26":-0.148438468934703,"27":0.020279096401693446,"28":0.24106925408056945,"29":0.09016930052787508,"30":0.32802394585543715,"31":-0.31768504687419435,"32":0.021744533117766984,"33":0.6004311099831435,"34":0.0180674521726445,"35":0.4718190387983728,"36":-0.004215274466012786,"37":-0.12437447276351414,"38":-0.2630243833398429,"39":-0.02840430407674391,"40":-0.1270325669004737,"41":0.12893942189243618,"42":1.022124119981429,"43":-0.13241855813446157,"44":-0.7374337787162991,"45":-0.6362605679093596,"46":0.233983766904823,"47":-0.2320914186060642,"48":-1.2451538441829502,"49":0.5213072539763715}},{"sx":1,"sy":1,"depth":50,"w":{"0":0.45456271710221785,"1":0.35969517748104607,"2":0.8775198184271307,"3":0.12692652458046125,"4":0.37415528764368855,"5":-0.10298120474303415,"6":-0.3181949002172181,"7":-0.4227507838460085,"8":-0.40777170828854903,"9":-0.23805935426353605,"10":0.2656968290255181,"11":0.308681790472913,"12":0.32500648274472815,"13":0.31299174793775497,"14":0.06751139758490907,"15":0.32983090631474915,"16":-0.1803711869178781,"17":-0.049922941127297324,"18":0.09217595752979327,"19":0.08796682392249736,"20":0.42429382182473946,"21":0.05714802831147894,"22":-0.3544728559404545,"23":-0.4773476312490148,"24":0.19831487352323782,"25":0.11378687945028096,"26":0.007980303486390478,"27":-0.23005985140371094,"28":0.2378539682887823,"29":0.21802944242722022,"30":-0.45079724380052266,"31":0.5118872159880197,"32":-2.915377236937616,"33":-0.1600176602168063,"34":-0.07300428196468,"35":-0.11131783642534487,"36":0.06501110962745826,"37":0.23299066374150712,"38":-0.23740674674120427,"39":0.16060370501062657,"40":0.06580173009809176,"41":-0.02212014056431998,"42":0.22140801591821477,"43":0.09690016879227752,"44":0.15145620090205433,"45":-0.5422111809072698,"46":0.10038575610972054,"47":0.2777947289896959,"48":-0.11146511466880725,"49":-0.47334508663192243}}],"biases":{"sx":1,"sy":1,"depth":3,"w":{"0":0.024618050066047063,"1":-0.0031688387665352842,"2":-0.03354596142463889}}},{"out_depth":3,"out_sx":1,"out_sy":1,"layer_type":"regression","num_inputs":3}]}'