const ai03='{"layers":[{"out_depth":21,"out_sx":1,"out_sy":1,"layer_type":"input"},{"out_depth":50,"out_sx":1,"out_sy":1,"layer_type":"fc","num_inputs":21,"l1_decay_mul":0,"l2_decay_mul":1,"filters":[{"sx":1,"sy":1,"depth":21,"w":{"0":0.24562727850274396,"1":0.10759814800675713,"2":0.0765736563059564,"3":-0.5494837030204721,"4":-0.2788638799692751,"5":-0.1457399687571232,"6":-0.2705354005123473,"7":-0.1626760311311896,"8":0.16053873641994346,"9":-0.18456300208147242,"10":-0.18129600011927655,"11":0.2808481708184511,"12":-0.22610199805742953,"13":-0.1319365089649102,"14":-0.06326822894893841,"15":-0.3272143776441704,"16":0.07886175433773229,"17":0.1472592379235619,"18":0.14253681625832856,"19":-0.09646426974866476,"20":0.05747216782527547}},{"sx":1,"sy":1,"depth":21,"w":{"0":-0.04117781110664594,"1":-0.07163125613909178,"2":-0.3274127691145508,"3":0.41672844377824175,"4":-0.351399809293761,"5":0.3279717920994501,"6":-0.16906706001678948,"7":-0.22878297579051068,"8":0.15879405980659844,"9":-0.22835831115794472,"10":0.024242270345502324,"11":0.33537501896493177,"12":-0.3024672962936085,"13":-0.07580885850870783,"14":-0.5530414778121433,"15":0.04172636757554405,"16":-0.25859010955123846,"17":0.32318793274260893,"18":-0.04484287798413301,"19":-0.09284366715827065,"20":0.01946263768182331}},{"sx":1,"sy":1,"depth":21,"w":{"0":-0.29986080300322404,"1":0.330294030526582,"2":0.09821311667032535,"3":0.08095842252565082,"4":-0.2663295644256857,"5":0.12303994317820054,"6":0.24132645884952697,"7":0.42052220451494354,"8":-0.2658646960628974,"9":0.20367249856348696,"10":0.11635345173029826,"11":-0.26048627305876026,"12":-0.014372499846432117,"13":0.11535294357082279,"14":-0.10429155473199009,"15":0.047691940459773804,"16":-0.026035657275212037,"17":0.013629806908973014,"18":0.14785802814710897,"19":-0.014054576974186125,"20":-0.24248518306161423}},{"sx":1,"sy":1,"depth":21,"w":{"0":-0.48193130662444844,"1":0.053345886587448925,"2":0.1592414147945191,"3":-0.09573790630194612,"4":-0.5102347086661445,"5":0.16558109229927565,"6":0.15732181380361404,"7":0.06332396220420253,"8":-0.3311242943650312,"9":-0.039021794619402875,"10":0.1960280649660115,"11":-0.18858430039202556,"12":0.14876771847210538,"13":0.000884289357316482,"14":0.43439319205002297,"15":-0.2629589722970409,"16":0.12957712776415295,"17":0.15638950677574193,"18":-0.16605187210132014,"19":-0.2372661862508614,"20":0.0769545394585289}},{"sx":1,"sy":1,"depth":21,"w":{"0":0.12953252682112065,"1":0.029278111085128473,"2":0.3391469890777587,"3":-0.06703238709229353,"4":-0.3332898463184998,"5":0.17108604974359787,"6":0.2617032032907815,"7":-0.16006632115955116,"8":-0.07960417636816505,"9":0.10267114257672416,"10":-0.12008660043686674,"11":-0.3406550195831725,"12":-0.07644730764126834,"13":-0.47029523844093457,"14":-0.02156620754130918,"15":-0.2473508508184939,"16":0.010567194257234399,"17":0.22644956202760022,"18":-0.4011814912628484,"19":0.38895696814663483,"20":0.0925253242694572}},{"sx":1,"sy":1,"depth":21,"w":{"0":-0.26075537573053936,"1":-0.08593146481115937,"2":-0.18294577473601056,"3":-0.3047653518522924,"4":0.3906507552442634,"5":-0.09125513590664516,"6":0.10926283998826064,"7":0.2549886850783412,"8":-0.16726600634880653,"9":-0.3088803989770986,"10":0.11548099157881078,"11":-0.00856012477046946,"12":-0.15446340258499688,"13":0.010173106259825922,"14":-0.3137457885097157,"15":-0.14412024959434422,"16":-0.04743173235398482,"17":-0.5144436962671056,"18":-0.08868136161458011,"19":0.032865176386968384,"20":-0.08237390013218612}},{"sx":1,"sy":1,"depth":21,"w":{"0":0.12655636629693548,"1":0.13929216719618104,"2":-0.23838464480720833,"3":0.2546664749741209,"4":-0.3907749815905456,"5":0.33168578524292563,"6":0.5187036534070938,"7":0.11772085062126035,"8":0.04143342918048111,"9":-0.1767681130041151,"10":-0.38745718542997415,"11":-0.525031906994903,"12":-0.02918790551922179,"13":-0.10695860011643378,"14":0.02435716633946037,"15":0.4116752426635904,"16":0.06429405700906791,"17":0.03408115535032039,"18":-0.31266786926319734,"19":-0.08496648311590478,"20":-0.005466662188705009}},{"sx":1,"sy":1,"depth":21,"w":{"0":0.10864285639793779,"1":0.3517037210973609,"2":0.7080265091857099,"3":0.031873014696112624,"4":0.005453545559145323,"5":-0.08366857563692341,"6":-1.3304882028620666,"7":0.1697097763471587,"8":0.09612782683592826,"9":0.07298440356823117,"10":0.013195668582172053,"11":0.25534175014516236,"12":0.017003986157563645,"13":-0.13236255419633178,"14":-0.4047561967355561,"15":0.06679781685977368,"16":0.04331982297899477,"17":0.01775346608005353,"18":-0.09008661223439512,"19":0.03804915124988653,"20":0.0268483197883308}},{"sx":1,"sy":1,"depth":21,"w":{"0":-0.5378465427823826,"1":0.15215408399683647,"2":0.4970220698748987,"3":0.12527459400069654,"4":0.23375226427920096,"5":-0.1080988989861826,"6":-0.5000410155405431,"7":0.15035833062948928,"8":-0.11731860411017346,"9":0.04494547056000351,"10":-0.0994517563890407,"11":-0.09250828946142656,"12":0.29126967656811314,"13":0.29410915368174356,"14":-0.10532790971640664,"15":-0.8186647276901637,"16":-0.2317969334071949,"17":-0.21217375777686115,"18":0.2691895310711455,"19":-0.21289990043943868,"20":0.12412134624251009}},{"sx":1,"sy":1,"depth":21,"w":{"0":1.0380907252308271,"1":0.1679876265751122,"2":-0.1781980572152972,"3":0.9839953561635124,"4":-0.5190543858554985,"5":-0.11260370228097054,"6":-0.7004811956897499,"7":-0.3102116617190709,"8":-0.0912762807657026,"9":0.18818588057363686,"10":0.2211461556731082,"11":0.099056319008441,"12":-0.16865587613626515,"13":0.009949938709492933,"14":0.004642697115948789,"15":0.11018174474448598,"16":0.0024819291551484352,"17":0.16159869036262514,"18":0.07396420254081225,"19":0.31097579316947893,"20":0.055956648967898925}},{"sx":1,"sy":1,"depth":21,"w":{"0":-1.750591358723984,"1":0.9241432446741693,"2":0.10903969954509835,"3":-0.7342860305860076,"4":0.5614308189771703,"5":0.04390346262280554,"6":0.30795722970355033,"7":0.23369817401568177,"8":-0.261068954719787,"9":0.41891137970310927,"10":-0.009074427728877546,"11":0.3672483476342561,"12":-0.27873081790632964,"13":0.029315018848790977,"14":-0.08455339258263611,"15":-0.10902674747732716,"16":0.028926565952888787,"17":0.1603516027993609,"18":0.15548832736731222,"19":0.11545602862489945,"20":0.10452297596137457}},{"sx":1,"sy":1,"depth":21,"w":{"0":-0.04704877189171013,"1":-0.24653335875407814,"2":0.3787319930313492,"3":-0.30642695634808226,"4":0.22039937236310755,"5":-0.007769467050300261,"6":0.0718845225680856,"7":-0.10082911224749892,"8":-0.3316893387864935,"9":0.3967756259271625,"10":-0.22026698610431403,"11":-0.16037068632414425,"12":0.02025133521528175,"13":-0.09400246285344023,"14":0.10298856674319266,"15":0.3752414815501866,"16":0.06026383071515635,"17":-0.37910995991677493,"18":-0.1526292154031256,"19":0.13912220968456787,"20":-0.020364411365440843}},{"sx":1,"sy":1,"depth":21,"w":{"0":0.2466250267886525,"1":0.0030169467096551514,"2":0.01999909237453613,"3":-0.20930449461731002,"4":-0.16186225231983767,"5":-0.05288643918276748,"6":0.3650835223506469,"7":-0.012238995138158546,"8":0.20528695657279739,"9":0.3640690915001823,"10":0.07052857264691638,"11":-0.2611694428763153,"12":-0.28476554092923884,"13":-0.16924057779755874,"14":0.07730370941651453,"15":-0.3715164699404487,"16":-0.0301821035187542,"17":-0.17937364680351406,"18":-0.4632605761959708,"19":-0.27894087215929897,"20":-0.021761873522188925}},{"sx":1,"sy":1,"depth":21,"w":{"0":-0.23990866176851242,"1":-0.48939339999818915,"2":-0.40573757742676425,"3":-0.15643936113640378,"4":0.32572022079168417,"5":-0.2114847876010444,"6":-0.38320417711676985,"7":-0.0887816677282338,"8":0.03679209302976406,"9":-0.32372899535292504,"10":-0.1815503710256052,"11":-0.36794695135215566,"12":0.06469870011075947,"13":-0.1346386752717866,"14":-0.35459344374152324,"15":0.04832616835834708,"16":0.14888161427507474,"17":-0.05216950906708368,"18":-0.08661217321982576,"19":-0.2680186061961238,"20":0.38199068578385104}},{"sx":1,"sy":1,"depth":21,"w":{"0":0.23445049352845693,"1":-0.36561068388545326,"2":0.012827996234107287,"3":0.5167400394502126,"4":0.11036857300030767,"5":0.009966384052269212,"6":0.36014732252809756,"7":-0.3593785331609662,"8":0.2135605564314242,"9":0.2293889026532127,"10":0.3791433036484425,"11":-0.1265697227597284,"12":-0.11983082687916048,"13":0.10539968490227639,"14":0.08722562950245234,"15":-0.24622935662299394,"16":-0.22244973593692594,"17":0.34360460079095284,"18":0.1784538663450273,"19":-0.3662501732976839,"20":0.10150506689565836}},{"sx":1,"sy":1,"depth":21,"w":{"0":0.3028340188616995,"1":0.3032092234511811,"2":0.22131098924107107,"3":-0.14014794910328224,"4":-0.3015886125406898,"5":0.13827077637080615,"6":0.17402774162183857,"7":-0.015587183580003543,"8":-0.22277082598545134,"9":0.12197022402157648,"10":-0.2443509919699482,"11":0.19017215678696042,"12":-0.10933363941432873,"13":-0.09846968423268904,"14":0.2989870699687671,"15":0.06067872861444819,"16":-0.24396210744484412,"17":0.16872119781156025,"18":0.10937778950313742,"19":-0.20636641900675692,"20":-0.14884571346414807}},{"sx":1,"sy":1,"depth":21,"w":{"0":-0.4658611306232454,"1":-0.17753263953585077,"2":0.10094196907983868,"3":-0.09561842639018943,"4":-0.3923440199848519,"5":-0.04521542526290237,"6":0.09431877982094518,"7":-0.21025581748354305,"8":0.05595426064614768,"9":0.19436405045654556,"10":-0.08257922269006847,"11":-0.05676940924468845,"12":0.03226543550288684,"13":0.01907500370988742,"14":0.061504227020190656,"15":-0.06545162160739323,"16":0.056608349839468386,"17":0.1949938432229235,"18":0.04883488672014829,"19":0.036082141157617285,"20":-0.09203896930965239}},{"sx":1,"sy":1,"depth":21,"w":{"0":0.1265455591300517,"1":-0.403140011334165,"2":0.007584815210391286,"3":0.2678888586354112,"4":-0.052685593426860404,"5":-0.22488397788200537,"6":0.4724100816060772,"7":-0.15684540965512062,"8":-0.11718104400372328,"9":0.049554177287633866,"10":-0.07456827120307556,"11":-0.0749264466899644,"12":-0.6138907666432213,"13":-0.2360051378231014,"14":0.4668095220050459,"15":-0.017924838083312945,"16":0.022795785137549884,"17":0.059826633002867044,"18":-0.17849531333764318,"19":0.13960032074766446,"20":0.11590537732613454}},{"sx":1,"sy":1,"depth":21,"w":{"0":1.2793057744799337,"1":-0.8727234290309316,"2":-0.190659732984219,"3":-1.4283872636446686,"4":0.5490613930500391,"5":-0.013987878991200133,"6":1.3262781593496222,"7":-0.04609300971990828,"8":0.02503223514269626,"9":0.23053347259729368,"10":0.22931877409676626,"11":-0.007080280840197694,"12":0.07842066618866994,"13":0.20717614300360102,"14":0.05729829214508714,"15":-0.0983639169490882,"16":0.0024716068247335084,"17":0.08645291766098111,"18":0.14254279141089254,"19":0.10643542990933516,"20":0.04279565079645343}},{"sx":1,"sy":1,"depth":21,"w":{"0":0.2979687766140944,"1":0.46254865187994204,"2":0.17486630094872757,"3":0.3276376299998304,"4":0.026703678237163395,"5":0.061757189126055566,"6":0.16753117065931697,"7":0.2000552439027783,"8":-0.17492027488484482,"9":0.39950357841547346,"10":-0.34231436263997395,"11":0.09714120120908691,"12":0.19861219960816048,"13":-0.18487445366279273,"14":-0.12223601070805683,"15":0.12394040509624207,"16":0.014632951922914536,"17":-0.4816876072773066,"18":0.0540662398946795,"19":-0.19879075010102457,"20":0.3682272014698662}},{"sx":1,"sy":1,"depth":21,"w":{"0":-0.13300635660260085,"1":-0.13157231480612505,"2":0.12433771990120367,"3":-0.1393497824421526,"4":-0.23639904520954305,"5":0.07972514732006476,"6":0.3081973012523001,"7":-0.17215455144889102,"8":0.465750714233765,"9":0.4571259746566219,"10":0.010365310392362099,"11":-0.23983010202281932,"12":0.39071996305596685,"13":0.11460619989842802,"14":-0.2706204342056194,"15":0.04062383493832617,"16":-0.10604060050830516,"17":0.05605184723110314,"18":-0.15393042019099304,"19":-0.34195775330264483,"20":-0.2590965191770036}},{"sx":1,"sy":1,"depth":21,"w":{"0":0.7020695782612622,"1":0.37474543098331564,"2":0.03999629548844532,"3":0.4805876632916665,"4":0.21532842110631342,"5":-0.11408696612317089,"6":-0.6938576047951699,"7":0.6100621623776514,"8":0.10496746435588045,"9":-0.07418164044530944,"10":-0.3397436069772469,"11":-0.09555728847478195,"12":0.13984926180381993,"13":-0.19205381422302115,"14":0.13720570165902218,"15":-0.08090782154203945,"16":0.23817609655362665,"17":-0.22367581276710147,"18":0.14004780556515503,"19":0.035753334740247625,"20":-0.1821251582915307}},{"sx":1,"sy":1,"depth":21,"w":{"0":1.3966476144345903,"1":-0.08341528640775972,"2":-0.1960895646052706,"3":0.012988694299366003,"4":-0.4614418196991574,"5":-0.033867404295623474,"6":1.3803368679033732,"7":0.18836556752157185,"8":0.04920566983749501,"9":-0.27595068382339993,"10":-0.15669979769300363,"11":-0.19312192696402597,"12":0.3256244150247836,"13":0.22389065173603614,"14":-0.023287030424472322,"15":-0.01738659179920959,"16":-0.010208668028209796,"17":0.12175290532919986,"18":0.005443499027980084,"19":0.01807463338194758,"20":-0.062047918478295785}},{"sx":1,"sy":1,"depth":21,"w":{"0":-0.04148973943835766,"1":0.08539632935731632,"2":0.03367588460900175,"3":0.22822546766123422,"4":0.2055591061272671,"5":-0.09629834576529986,"6":0.43781393995731677,"7":-0.3113185076477556,"8":-0.275450613972891,"9":-0.3478360098532989,"10":0.011206638492048842,"11":0.04141420586769578,"12":0.03224261701012356,"13":0.012756248031922482,"14":-0.09306822770342496,"15":0.1408389815487335,"16":0.026002495459377384,"17":-0.31325113699554624,"18":0.15300657599206882,"19":0.04773181988353036,"20":0.24432483749738476}},{"sx":1,"sy":1,"depth":21,"w":{"0":0.9316982266861952,"1":-0.23095749152966763,"2":-0.08782638104374905,"3":0.39279424424593334,"4":0.0902245149307296,"5":0.23868887250942067,"6":0.9728413635376805,"7":-0.9872900356834557,"8":-0.1426626200896394,"9":0.08538120708368847,"10":-0.4382923459895639,"11":0.09368510979866179,"12":-0.1296482652777422,"13":-0.11554908037494266,"14":-0.22029809569535685,"15":0.1215963382286445,"16":0.1813610856844848,"17":0.06338818387575604,"18":0.22478219671820024,"19":0.13587473828788754,"20":0.2346616881977903}},{"sx":1,"sy":1,"depth":21,"w":{"0":0.08602620020977267,"1":0.048607584487737956,"2":-0.15552440695703068,"3":0.24433725329818817,"4":-0.12782705790130136,"5":0.09889172164578694,"6":-0.06154581605505071,"7":0.211653014657385,"8":0.01637243980458748,"9":-0.2831193310331465,"10":-0.059141255274040294,"11":0.011444913160927658,"12":0.021029224073544395,"13":0.21003664733774569,"14":-0.028730808299252706,"15":-0.020830162918709986,"16":0.25121221520127573,"17":0.2378947963146313,"18":-0.4682361457350122,"19":-0.3028687217770357,"20":0.20422304845584227}},{"sx":1,"sy":1,"depth":21,"w":{"0":-0.7415324399874876,"1":-0.31547516688396876,"2":0.388936494211706,"3":-0.48678666072157284,"4":-0.18346691349015803,"5":0.07000017524155501,"6":0.5021511367063204,"7":0.25335629884002936,"8":0.016118359072441038,"9":0.011518665266542594,"10":0.22052609433498263,"11":0.050307557320538196,"12":0.24749900502832953,"13":0.08867357123728131,"14":0.11954448796850316,"15":0.16969060992978685,"16":-0.4329049704027207,"17":0.3429264924856086,"18":-0.017050984700332356,"19":0.09735221205942002,"20":0.020569858858966537}},{"sx":1,"sy":1,"depth":21,"w":{"0":-0.3855632993894062,"1":-0.429995627294967,"2":0.033397238266460114,"3":-0.29360165213136147,"4":-0.14244806354048564,"5":-0.005847503026929107,"6":-0.4393355197731721,"7":0.33778702553418993,"8":-0.0371181669720088,"9":0.039593702315957616,"10":0.1290170124649773,"11":-0.07376401061075227,"12":0.15937044933817157,"13":-0.05444968887144673,"14":-0.09793558187672574,"15":-0.09926263651110696,"16":0.14851873121034975,"17":-0.02044164454068912,"18":0.3226836048562712,"19":-0.2405518318991305,"20":-0.05546022758741436}},{"sx":1,"sy":1,"depth":21,"w":{"0":1.4739836806292708,"1":-0.8038781747312571,"2":0.059211837886898745,"3":0.5087085161869667,"4":0.2691406883006352,"5":-0.025197250248028675,"6":-1.202133501733641,"7":0.5394609563358896,"8":-0.2364138482911394,"9":0.09312703083925888,"10":0.16435195994568647,"11":-0.12859653578202895,"12":-0.05304097864139951,"13":-0.18424332265969787,"14":-0.03336259807028501,"15":-0.2863061608508714,"16":-0.10818403233855321,"17":-0.02475904818767427,"18":0.1691876696481537,"19":0.14795844373118375,"20":0.13778556211217488}},{"sx":1,"sy":1,"depth":21,"w":{"0":0.3341442554098912,"1":0.17774442003390178,"2":0.009155980276323566,"3":0.9801553456655302,"4":0.09894650087839353,"5":0.08555059737214658,"6":1.0966127383290034,"7":-0.1399949900509493,"8":-0.3765808453813911,"9":0.12957422252278808,"10":0.017717934426761894,"11":-0.357054735364152,"12":-0.32701243922278356,"13":0.05372518594527645,"14":-0.32679562014427227,"15":0.1608265625842313,"16":0.1306646888998562,"17":-0.23146489504723716,"18":-0.2053340831912376,"19":0.06679914806331172,"20":0.04390383499850093}},{"sx":1,"sy":1,"depth":21,"w":{"0":-0.3436310475364732,"1":0.14629579340659823,"2":0.04081704865686265,"3":-0.4597720168222999,"4":0.3155204951551357,"5":0.055129547659840246,"6":-0.4419025487716493,"7":0.012016065131157225,"8":-0.004667182617004263,"9":-0.14569756737868841,"10":0.026272909952796523,"11":0.02548956205058819,"12":0.3383419069480272,"13":-0.015315015480108213,"14":-0.008803923748045587,"15":-0.2699932651198264,"16":-0.4522249261729992,"17":0.27896970575283503,"18":0.11936232620421172,"19":0.12745570747770585,"20":-0.2807741282117039}},{"sx":1,"sy":1,"depth":21,"w":{"0":0.07814331833453074,"1":0.28750320985608624,"2":0.20615365624100157,"3":-0.15465838007146632,"4":0.33886318704263513,"5":0.023913661870992427,"6":-0.1583310982242319,"7":-0.26700604780501924,"8":0.02099433487615654,"9":-0.30573373967211714,"10":0.3017405257482049,"11":-0.11843004463884173,"12":0.3339585649963624,"13":-0.05385230659067337,"14":0.04793352525995818,"15":-0.18694831184796043,"16":-0.19878599437592687,"17":-0.225363163332131,"18":-0.2571335957458465,"19":0.3209696882117047,"20":0.12906635212471387}},{"sx":1,"sy":1,"depth":21,"w":{"0":-0.3567579523804638,"1":0.045400714555337444,"2":0.14069787287600094,"3":-0.629142413836369,"4":-0.007295228409873014,"5":0.30102176658063123,"6":-0.36114530407193235,"7":-0.583532134670426,"8":-0.17231263156542886,"9":0.11536364688062087,"10":-0.25041076400776463,"11":0.40305898184007827,"12":0.3533172231215696,"13":-0.2988338877316202,"14":-0.08732869734184578,"15":-0.5322905884670458,"16":0.1904618817700902,"17":-0.020894399036086028,"18":0.22541079629848174,"19":-0.21979424699093392,"20":0.20864996156539045}},{"sx":1,"sy":1,"depth":21,"w":{"0":-0.27880564603933544,"1":0.31956669990300896,"2":0.0063593120296543725,"3":0.15886389285770278,"4":0.3950543111066731,"5":0.0415582402501579,"6":0.3050118068078787,"7":-0.8861385719285862,"8":-0.005483641801997145,"9":-0.08534879110646473,"10":-0.19605415258405667,"11":0.325746600775672,"12":0.006725271135567652,"13":-0.006812248285001258,"14":0.13083228266067984,"15":0.47050849456599525,"16":-0.09192405841948854,"17":0.06019751876615219,"18":0.18560489591836996,"19":0.006272367932318977,"20":-0.08297407125677259}},{"sx":1,"sy":1,"depth":21,"w":{"0":0.23072140853263975,"1":-0.13102793729291182,"2":-0.23504896381512141,"3":0.061737721842731255,"4":-0.6578842744481709,"5":-0.49037336206664384,"6":-1.1962281257237901,"7":0.31259794397350255,"8":0.2803767442880442,"9":0.0346230695157325,"10":-0.38766119822959655,"11":0.023606939073778966,"12":0.31778365516684187,"13":0.2633112027492408,"14":0.09546830140703784,"15":0.2725808251611879,"16":-0.0931934399573274,"17":0.3014610703366293,"18":0.1563081913654301,"19":0.1420688485184437,"20":0.230746368377832}},{"sx":1,"sy":1,"depth":21,"w":{"0":0.5974592672574995,"1":-0.16331472486715382,"2":0.28362892753026514,"3":0.2915031887012556,"4":0.23016885906398254,"5":-0.02547036519934247,"6":-0.08844953939173972,"7":0.0722597656808811,"8":0.2337433193913686,"9":-0.25229332967649937,"10":-0.16693333036404315,"11":-0.27360688746883044,"12":0.12555471168234386,"13":0.04266669509500629,"14":-0.17775040741192202,"15":-0.05823599004440631,"16":-0.004187317940756871,"17":-0.06862558654686854,"18":0.12990604574685982,"19":-0.12770997362469794,"20":-0.07481439088048222}},{"sx":1,"sy":1,"depth":21,"w":{"0":0.2589816016442791,"1":0.16516496343633247,"2":-0.15186133342347355,"3":0.09342078047213058,"4":-0.25956478244283454,"5":-0.08382595180038463,"6":-0.17087694925760663,"7":0.0901889820334409,"8":0.08068903777222042,"9":0.036308664777142716,"10":0.28845235772713707,"11":-0.2310787981314533,"12":-0.23393827647512433,"13":-0.19828356858949875,"14":0.16856888594806377,"15":-0.028449818843760664,"16":-0.09936492324477207,"17":-0.5814294987363077,"18":0.2767321014775014,"19":-0.06142274061582411,"20":-0.1547099836719785}},{"sx":1,"sy":1,"depth":21,"w":{"0":0.16960837274542567,"1":-0.11589777154984528,"2":0.010745596441742701,"3":-0.1188146734564589,"4":-0.18817686085698127,"5":-0.1829289531213361,"6":-0.3014435053332604,"7":0.13208319058727275,"8":-0.09301307309237436,"9":0.4596847472847308,"10":0.12198264120747504,"11":-0.01778146794665621,"12":0.19258051852448296,"13":0.49130608883638444,"14":-0.13058881600683978,"15":-0.1164448758299186,"16":-0.155275229885295,"17":-0.0911613818994938,"18":-0.24067530576322926,"19":-0.10184987536134354,"20":-0.3768928116546624}},{"sx":1,"sy":1,"depth":21,"w":{"0":0.04130376116026883,"1":-0.30202257117278836,"2":-0.02792236822943586,"3":0.6576743256356042,"4":-0.08616885028405806,"5":0.0010514157890645953,"6":-0.32678815383519927,"7":0.4999376157943065,"8":0.16060128647051056,"9":0.6879498465307411,"10":0.05072328498142409,"11":0.1140577167845882,"12":-0.20791712656496972,"13":0.39049619992117124,"14":0.20767761874517274,"15":-0.022462618849271445,"16":-0.058027963335737995,"17":0.1257482545350401,"18":-0.3112616642675564,"19":-0.3759649912990244,"20":0.1086525804746126}},{"sx":1,"sy":1,"depth":21,"w":{"0":-0.6421255193372982,"1":-0.5975170682068229,"2":0.17077207296432892,"3":-1.0296422245934003,"4":0.015432143533557166,"5":-0.18204656502583136,"6":-1.1003300073808218,"7":0.3643597476762567,"8":0.025051653789499456,"9":-0.4145212422255991,"10":-0.31186607299058955,"11":0.25928382900237,"12":-0.43505216076430864,"13":0.3858533616400019,"14":-0.1930750595986876,"15":0.29206482894585023,"16":0.09778979504171136,"17":0.4165494600154188,"18":0.34404170512976767,"19":0.334380676864181,"20":0.3312180377064697}},{"sx":1,"sy":1,"depth":21,"w":{"0":-0.27474649857064837,"1":0.03194071345920673,"2":0.3317493156536226,"3":0.0054853941873740375,"4":-0.12359299862792365,"5":0.06989391081313923,"6":-0.003066990482404542,"7":0.009508408984585513,"8":0.25044500918041035,"9":0.4713010434267,"10":-0.26097241821393424,"11":-0.503692400664188,"12":-0.16270224591721594,"13":0.050688620804966236,"14":0.28307393665167885,"15":-0.004627725409258289,"16":0.10382799812340443,"17":-0.21464061885217617,"18":-0.27257225272176083,"19":-0.23835663618920044,"20":-0.19876440626138367}},{"sx":1,"sy":1,"depth":21,"w":{"0":-0.15112835799679933,"1":0.3135081994543572,"2":0.43155064698707085,"3":-0.48287767577121965,"4":0.060795778640184,"5":0.29240955228569854,"6":-0.6421850219791589,"7":-0.05686747821106753,"8":-0.06118228763243519,"9":0.2990959332724957,"10":-0.3184014218550743,"11":-0.15691835449438793,"12":-0.034156773854223325,"13":0.23767108302619688,"14":0.12672592405771105,"15":-0.5691534582253172,"16":0.15864831750587727,"17":0.183678828438028,"18":-0.03843001304588381,"19":-0.07172139624002871,"20":-0.23926175279595038}},{"sx":1,"sy":1,"depth":21,"w":{"0":0.6950811658302124,"1":0.1734422030886529,"2":0.02755553860484249,"3":-0.2410635016214125,"4":-0.06743874629312843,"5":0.16913431903440543,"6":-0.11345521985273051,"7":-0.33389516432762734,"8":-0.0118308481593567,"9":-0.05836702110810043,"10":-0.17833114366943512,"11":-0.13329634094238965,"12":0.2261411606133008,"13":-0.07095816259473575,"14":-0.24797795708398385,"15":-0.12074394258008013,"16":0.09942542727619932,"17":0.12826565833544099,"18":-0.3880229098580804,"19":0.08945772223454772,"20":-0.12420028027189732}},{"sx":1,"sy":1,"depth":21,"w":{"0":-0.10430269239173695,"1":-0.2738055438658735,"2":0.1442324922786009,"3":-0.14421885625395953,"4":0.7115609739689617,"5":-0.04144991921696088,"6":0.10987990414899712,"7":-0.20387841198595164,"8":0.12410989446689244,"9":0.25702068228787983,"10":-0.08647881301970875,"11":-0.08933963770002368,"12":0.2169527158038419,"13":-0.33878920754797615,"14":0.23855900609040778,"15":0.07553253810660687,"16":-0.03486547891756517,"17":-0.09164212827304637,"18":-0.1360571315277696,"19":0.04240185371314037,"20":-0.17875908950315794}},{"sx":1,"sy":1,"depth":21,"w":{"0":1.3259315183428582,"1":-0.81594128855605,"2":0.019122642170293008,"3":-0.16332929070729357,"4":0.05756920071790855,"5":-0.04919855618532859,"6":0.042020804200858505,"7":0.24187618769180116,"8":0.4772826871147002,"9":0.21465475728990163,"10":-0.14255885663947093,"11":-0.11196969539656793,"12":0.005716039366388765,"13":-0.08644287404754719,"14":0.0005383996639577845,"15":0.26277285342209633,"16":0.10965382871223144,"17":0.024417573721593273,"18":0.10279670381275444,"19":0.0013612831835780968,"20":0.001193146017746791}},{"sx":1,"sy":1,"depth":21,"w":{"0":-0.07568639415688753,"1":0.38318331129643096,"2":-0.09875710936286636,"3":-0.2503117354818327,"4":-0.6671579758155561,"5":-0.1771771336463991,"6":0.1404260286920439,"7":-0.20335658624862676,"8":-0.4743859143653205,"9":-0.18228561303579016,"10":0.36199537158504713,"11":-0.26465538714499753,"12":0.019987852069912555,"13":-0.14158381213676216,"14":0.4701744543370582,"15":-0.5828384867331652,"16":-0.025376742905174977,"17":-0.1167100450460174,"18":0.31073710003014626,"19":0.027357605021135177,"20":-0.04439283862393554}},{"sx":1,"sy":1,"depth":21,"w":{"0":-0.4614260743968498,"1":0.01646849287070353,"2":-0.17207018362107382,"3":0.15016829132981904,"4":-0.31261872855401523,"5":0.11608874276928838,"6":-0.26055677141837624,"7":-0.29903851678614063,"8":0.011991930660607423,"9":-0.03813649021390874,"10":0.0464494836568413,"11":0.32407140198442025,"12":0.3782312927403082,"13":0.10441569475698281,"14":0.23717828108044084,"15":0.13802204323669473,"16":0.164759736652342,"17":0.18561857112964,"18":0.14300742096016889,"19":-0.19266825763419598,"20":0.02769559374000424}},{"sx":1,"sy":1,"depth":21,"w":{"0":0.2476290139674253,"1":0.008329603000824238,"2":-0.13042199698481016,"3":-1.286646729668818,"4":-0.5197009412989189,"5":0.43341223977232035,"6":1.5830384296241309,"7":-0.8472372497313645,"8":-0.04250469759164397,"9":0.06240611594917683,"10":-0.1356151846938473,"11":0.17299410181723754,"12":0.1115778464784581,"13":0.1179814521627255,"14":0.241913759225135,"15":-0.09132724812595698,"16":0.0002019036693112067,"17":-0.02492219928588238,"18":0.22741510915867233,"19":0.15038058543117439,"20":0.2552696026573881}},{"sx":1,"sy":1,"depth":21,"w":{"0":-0.3184132651270437,"1":0.03291165644496917,"2":0.04424883765513308,"3":-0.4368805613731048,"4":-0.5888375070777255,"5":0.2994291487684005,"6":-0.5306426124541994,"7":0.26560902804227665,"8":0.3277021458169232,"9":0.3353833814044366,"10":-0.27033845759077696,"11":-0.09475457515007572,"12":-0.10971353425350826,"13":-0.24569443683525935,"14":0.4237538468318091,"15":-0.42724595146648253,"16":-0.002105240066402679,"17":0.16517101697170225,"18":0.15403425799378467,"19":-0.1699443282298043,"20":0.11680282861173921}},{"sx":1,"sy":1,"depth":21,"w":{"0":-0.6494670869282775,"1":-0.44674113216106853,"2":0.2791590674194674,"3":2.955926873701995,"4":-0.8512768119751313,"5":0.05624745080712626,"6":0.9569248728134414,"7":-0.1394508062981256,"8":-0.05703093427547543,"9":0.11669899446024186,"10":-0.25555328665591565,"11":0.43538160389345854,"12":0.17738181772871664,"13":0.078538213402583,"14":0.016440063447755067,"15":-0.13512629362389256,"16":-0.01027412492320242,"17":0.3905021673774065,"18":0.11759359730130038,"19":0.09581024281054612,"20":0.025686385128667444}}],"biases":{"sx":1,"sy":1,"depth":50,"w":{"0":0.11354650982740787,"1":0.09915319955703993,"2":0.08759770833830771,"3":0.10429898652228724,"4":0.09025081390291118,"5":0.1,"6":0.09680869452724263,"7":0.08683056032828294,"8":0.09309780718380355,"9":0.09361149913777655,"10":0.10870327558838133,"11":0.11365715753263309,"12":0.10169498204702739,"13":0.10223274427457053,"14":0.09997210905376686,"15":0.09028825093024091,"16":0.0968482990134792,"17":0.104128697946903,"18":0.08798475643700858,"19":0.08093391427013918,"20":0.1,"21":0.07450647300112889,"22":0.10183917544914453,"23":0.09069630758623637,"24":0.11569010709040237,"25":0.07860124260473854,"26":0.12052040860846802,"27":0.07260261945183728,"28":0.1153719065668229,"29":0.11186512934278386,"30":0.09169238688999005,"31":0.07105526904142567,"32":0.12491570511425887,"33":0.10428488894455352,"34":0.12365367179843685,"35":0.10137141748386853,"36":0.08117461215164884,"37":0.1,"38":0.09139558304472213,"39":0.1770329391519387,"40":0.1,"41":0.10699352371668502,"42":0.09624195474622346,"43":0.08289868458252668,"44":0.08626663227848498,"45":0.09260393381457539,"46":0.0808355444607618,"47":0.12660726416440718,"48":0.10293637602974057,"49":0.13993546600110673}}},{"out_depth":50,"out_sx":1,"out_sy":1,"layer_type":"relu"},{"out_depth":50,"out_sx":1,"out_sy":1,"layer_type":"fc","num_inputs":50,"l1_decay_mul":0,"l2_decay_mul":1,"filters":[{"sx":1,"sy":1,"depth":50,"w":{"0":0.10402047786573024,"1":0.16489783026723437,"2":-0.01618976497552046,"3":-0.2118289619876047,"4":0.1473809289443661,"5":0.13648280669474,"6":0.1324886516086457,"7":0.04996370956601841,"8":-0.027497207572496157,"9":0.39326046959631883,"10":-0.24798683085259346,"11":0.14702432590727757,"12":0.1185626014327154,"13":-0.28921648130618555,"14":0.2261923276408325,"15":0.09241477191377483,"16":-0.1557669596351509,"17":0.1399398372991538,"18":-0.28165846254740773,"19":-0.01175935244942398,"20":-0.1338036393186716,"21":-0.26251807593354975,"22":0.2062969609368325,"23":0.04783536021161716,"24":0.021084707029170445,"25":-0.004500509322721217,"26":-0.02223310248318783,"27":-0.07670203316235717,"28":-0.3174849892385506,"29":-0.355304540167054,"30":-0.1666208276191845,"31":-0.02498452801568484,"32":0.1126000163776353,"33":0.2600768532085176,"34":0.21901045650845619,"35":0.06361036233876312,"36":0.05124464569687831,"37":0.052828197884242464,"38":0.0760537671304393,"39":0.17736112560272557,"40":0.16836668655221668,"41":-0.006261635826704136,"42":-0.07084162376804383,"43":-0.29049560803464114,"44":0.10065011852112708,"45":0.07788814244848834,"46":0.19734533489268116,"47":0.5023242479720288,"48":0.08493188645716823,"49":-0.12103266382301843}},{"sx":1,"sy":1,"depth":50,"w":{"0":-0.04302524051210059,"1":-0.16550685475497112,"2":-0.3817988236687275,"3":-0.08545625339179296,"4":0.017641290775315135,"5":0.09999933792682549,"6":0.009047916522894175,"7":0.25384724478893683,"8":-0.05227016214977508,"9":0.07872440834237011,"10":-0.2971417252480278,"11":-0.004046243009712503,"12":-0.023389606577945875,"13":-0.02706173978217198,"14":0.08665268264613735,"15":-0.11427118680746765,"16":0.1428520426616706,"17":0.13930884424958134,"18":0.050039884824497574,"19":0.2102251727489612,"20":-0.12602735898947318,"21":-0.43868335525622143,"22":-0.06452555474695,"23":0.042316864605192794,"24":0.2994687449418979,"25":-0.2934741287329524,"26":0.0026104195691553935,"27":-0.10078267022054019,"28":0.2504953231782407,"29":-0.2635153810127158,"30":-0.06609090873027851,"31":0.14684921978495316,"32":0.20730361149069293,"33":0.021339393194177953,"34":0.12633085935658914,"35":-0.23825127794564616,"36":-0.16448844655454928,"37":-0.11726760193191506,"38":0.01693690445497803,"39":-0.015406347696696278,"40":0.08537451951252921,"41":0.27687048255280816,"42":-0.1468695142478448,"43":-0.09726568395721974,"44":0.16771353898461505,"45":-0.03211869814001204,"46":-0.0018369635452785524,"47":-0.05481835513322542,"48":0.06326540632524541,"49":0.07971873184041582}},{"sx":1,"sy":1,"depth":50,"w":{"0":0.15251088111820896,"1":-0.09503449775471748,"2":-0.05001772644024502,"3":0.15862632987428169,"4":0.2803572326224379,"5":-0.13954274814898965,"6":0.2558057012859079,"7":0.004910974454384093,"8":0.018851067491813037,"9":0.3309835445463538,"10":-0.014085373879707264,"11":-0.06682516111984137,"12":-0.09504143685554588,"13":0.12284328753192746,"14":0.04163199444646924,"15":0.05807638262035182,"16":0.31193713393830996,"17":-0.1311845302257796,"18":-0.08419923649515434,"19":0.03390841937811854,"20":-0.08705030867744097,"21":-0.0806802799381202,"22":0.24523893089698848,"23":-0.22616373395079273,"24":-0.13142990176422328,"25":0.08432283258519496,"26":-0.2790703275161762,"27":0.026477826746082574,"28":0.10497316879314929,"29":0.12357276940999096,"30":-0.15499550320440608,"31":-0.31692817721192923,"32":0.14418278392186865,"33":-0.10707610804796897,"34":0.13961048882324567,"35":-0.11566833794059282,"36":-0.08171645503453184,"37":0.002133139986725294,"38":-0.04381459718260985,"39":0.19405131483025628,"40":-0.10367408286663944,"41":-0.15829542359479518,"42":-0.05107258182359212,"43":-0.07806284251642429,"44":-0.271052505679295,"45":0.156703229747354,"46":0.2809803591676033,"47":0.30461405064300456,"48":0.4770143553965093,"49":0.13031334658480717}},{"sx":1,"sy":1,"depth":50,"w":{"0":-0.14446489987037472,"1":-0.04618949167478049,"2":0.1333535255470743,"3":-0.04704599559013171,"4":-0.02754547971310394,"5":0.2620550356250941,"6":-0.010129049330663152,"7":0.06898121431200979,"8":-0.04367471526718456,"9":-0.2151195741497266,"10":-0.09787534898543182,"11":-0.0946340287058374,"12":0.04762970157516603,"13":-0.045541566166466506,"14":-0.2674680721021438,"15":0.05069630250877571,"16":-0.002534391826171697,"17":-0.127925374098875,"18":-0.02860428404361555,"19":0.0008474903782329161,"20":0.01567202487785175,"21":0.11103460184661247,"22":-0.07994144955847321,"23":0.012915685392267019,"24":-0.050567050221032715,"25":-0.04633566592579262,"26":0.17672012610775664,"27":-0.07931792648436026,"28":-0.07238300600267861,"29":0.05762861449889136,"30":-0.07755979564646935,"31":0.031164106075841753,"32":-0.08116465252118964,"33":0.489388181138228,"34":-0.030885613163102482,"35":0.06914817312618202,"36":0.00891633509630518,"37":-0.16749219757672199,"38":0.06208623938947208,"39":0.11392550778835833,"40":0.08785539936868984,"41":0.09877940414294133,"42":0.14703399915466225,"43":-0.15233608662054818,"44":-0.006636990209199297,"45":-0.13027913731622567,"46":-0.12421543123579476,"47":-0.2549929408665564,"48":-0.11547989813476214,"49":0.05259590242199751}},{"sx":1,"sy":1,"depth":50,"w":{"0":-0.12655057473835032,"1":0.1876679677165665,"2":0.15561830188899084,"3":0.010383477193263305,"4":0.20043126112545778,"5":0.02832012652085169,"6":-0.17166822013911656,"7":0.10839844927663725,"8":-0.15632218337332832,"9":-0.003600557584146206,"10":-0.041446312815025664,"11":-0.016996114746857905,"12":0.01590697124289118,"13":0.24292134200890184,"14":-0.030193679430892,"15":-0.28819733647231743,"16":0.11206826354484713,"17":0.11145213429064618,"18":-0.007821062153603273,"19":-0.2531447341669672,"20":0.45214236233845245,"21":-0.030587028452889024,"22":-0.05823907246445665,"23":0.1459459688433298,"24":-0.061851951752515934,"25":0.2869948300634307,"26":0.005159157679450327,"27":-0.08251637490540807,"28":0.29820188304044787,"29":0.050010226870823,"30":0.031084705162311856,"31":-0.040712587569878105,"32":0.2552447261718787,"33":0.1039126538462609,"34":-0.005093505331294945,"35":-0.028527018645464763,"36":-0.03782832199399567,"37":-0.11563911131839137,"38":-0.09964014238974582,"39":0.4730145556233733,"40":-0.038552495127026604,"41":-0.11828767695595796,"42":-0.046773160428181984,"43":0.08043307617861847,"44":0.051526171511224655,"45":-0.18354881211851573,"46":0.2257357879134735,"47":0.1754548294265075,"48":0.20139259766514844,"49":0.028791040924943948}},{"sx":1,"sy":1,"depth":50,"w":{"0":-0.058887054714053304,"1":0.12181156038088368,"2":-0.09691623026771119,"3":0.0391899191233594,"4":-0.01599784890020957,"5":-0.04272446878429278,"6":-0.1590327676808607,"7":-0.06860760655705639,"8":0.11445057610601657,"9":0.20983920557424648,"10":-0.1569696200734863,"11":0.014139055391569247,"12":0.03886131021347099,"13":-0.10966378023427782,"14":-0.0955032988808876,"15":0.14590064245095247,"16":-0.14218486277492567,"17":-0.124315925034072,"18":0.06271339485238088,"19":-0.17643317485554583,"20":0.06858697224093191,"21":0.09636045125340886,"22":0.06192229234651353,"23":-0.06507017429750077,"24":0.09310727597074778,"25":-0.32605806354334077,"26":-0.055206278430359856,"27":0.08713310087934105,"28":0.2177064909528519,"29":0.22616027195721883,"30":0.04778622745278327,"31":0.10929336026172046,"32":0.008501458860818671,"33":-0.025958109355268783,"34":-0.02526595786624082,"35":0.3078763073295927,"36":-0.13103263035078824,"37":-0.08469664843120199,"38":0.0033790424303701875,"39":-0.09796207394705873,"40":-0.19011777148818781,"41":0.11943517890520143,"42":0.40818627255876944,"43":-0.019396695311378293,"44":-0.018673699513216388,"45":-0.054356079868208985,"46":-0.13416014257103923,"47":0.2833086103706342,"48":-0.013931563944081045,"49":-0.03139965214054574}},{"sx":1,"sy":1,"depth":50,"w":{"0":-0.018239397788215816,"1":-0.03498916067939461,"2":0.06203334519185887,"3":0.21595616925670558,"4":0.24593317418906266,"5":-0.10213890371214515,"6":0.3911454626409929,"7":0.06767354807343917,"8":-0.012702321603027157,"9":-0.09952585800768916,"10":0.20944268298190818,"11":-0.0512560433047281,"12":0.12015950188464497,"13":0.20107852241445462,"14":-0.09815231227887651,"15":0.018217811886935564,"16":0.09222197104008147,"17":0.18775495208171325,"18":0.06599754430565176,"19":-0.12217727286711519,"20":0.00827330200371052,"21":0.13909347112059528,"22":0.09901621239840422,"23":0.1523723482801706,"24":-0.3952974609468499,"25":-0.14131208081782368,"26":0.3398040606202862,"27":0.1475776558256025,"28":0.1679016676945943,"29":-0.2364677593215976,"30":-0.03767965241885367,"31":-0.08267378283095445,"32":-0.007871106748907375,"33":-0.560430465577175,"34":0.25918788121788594,"35":-0.019655827566229356,"36":0.004354416047254304,"37":-0.13591781119210997,"38":0.4420132628813878,"39":0.3572778670759154,"40":-0.1498565156947665,"41":-0.1906710912063717,"42":-0.09206109829747902,"43":-0.01201436334033246,"44":0.41045174256332667,"45":0.03090680998429753,"46":0.2853330230619667,"47":-0.15349390430270626,"48":0.47460619164962997,"49":0.21588733354513737}},{"sx":1,"sy":1,"depth":50,"w":{"0":0.09388086852816918,"1":-0.12218606381708969,"2":-0.09539687854167403,"3":-0.17796120432637008,"4":-0.046855130809885424,"5":-0.24864259961790164,"6":-0.24895237168655637,"7":0.34509187263201296,"8":0.1001475856434643,"9":0.3439242554669388,"10":-0.020493830985661154,"11":0.11098039739698265,"12":0.03857463792963472,"13":-0.0002712547519530099,"14":0.11157590405181432,"15":-0.1957075555394407,"16":0.1625436441500467,"17":-0.05709090073800757,"18":-0.329949526976429,"19":0.06008826282651178,"20":-0.00880145100894029,"21":0.23669711956703324,"22":0.020715321325261566,"23":0.010058373691728798,"24":-0.16643272009010537,"25":0.05317930795228786,"26":-0.07324807393848164,"27":0.11749588437800115,"28":0.007961468969577582,"29":-0.18995448846653995,"30":-0.22391036525996516,"31":-0.021942476743228273,"32":-0.041737901116833544,"33":0.09046060641499272,"34":-0.07559761546653335,"35":-0.20627557819279627,"36":-0.1382117478103028,"37":-0.12581257015549147,"38":-0.02971160835435183,"39":-0.11049264892439505,"40":0.04610576073026969,"41":0.12635784539321326,"42":-0.13330932425605646,"43":-0.18630325910911025,"44":0.22279319832371217,"45":0.10244609681872614,"46":-0.13271043294539747,"47":0.0525377164028792,"48":0.1306178922298967,"49":-0.17438443293990855}},{"sx":1,"sy":1,"depth":50,"w":{"0":0.04714045667302455,"1":-0.008625543816703263,"2":0.1637906470871768,"3":0.06796734613341265,"4":-0.09463896352677308,"5":-0.052008781316404296,"6":0.33056934850669145,"7":0.06547669417642804,"8":-0.07673058469579229,"9":-0.1801402826309853,"10":0.030262066457842154,"11":0.04380295938012756,"12":-0.10393933038328305,"13":-0.1721381670909131,"14":0.06554897304536242,"15":-0.2538215536572494,"16":0.1506697005709031,"17":-0.22323074357854097,"18":-0.14333387777063394,"19":0.09652592085738741,"20":0.09882130248429369,"21":0.02376452516972138,"22":-0.10536628095329682,"23":-0.34901570357463596,"24":-0.23321956700535268,"25":0.09433445832608363,"26":0.22182928796129817,"27":0.09737818957238274,"28":-0.13656917242265332,"29":0.09554126999142776,"30":0.11423800746131092,"31":-0.14914514197555992,"32":-0.09387579650521252,"33":-0.21738365483583927,"34":-0.015985317273655996,"35":0.0454269566442942,"36":-0.17529801699726597,"37":0.10904849510293498,"38":-0.136647196622387,"39":0.0682455344887238,"40":-0.3180996614426691,"41":0.16853596004378932,"42":0.16645206887357544,"43":-0.0018489256321764435,"44":0.052266424631054575,"45":0.013909998743945285,"46":-0.10184478765239117,"47":0.031488955378930567,"48":-0.13092982126808062,"49":0.1913178419321322}},{"sx":1,"sy":1,"depth":50,"w":{"0":-0.012909260733156978,"1":-0.05861677529953542,"2":-0.004908638933669862,"3":0.025333313067227456,"4":0.12202136403752224,"5":0.023268097149409587,"6":-0.14053652918824788,"7":-0.170846387523533,"8":0.1623775355567701,"9":-0.2227323221576583,"10":0.36553547515479573,"11":0.11507540174226925,"12":0.03765247165701686,"13":0.04272592721043748,"14":-0.3171336351636929,"15":-0.054306289797775936,"16":-0.06912640809230343,"17":-0.14612783580179387,"18":-0.35488482066038834,"19":0.03834247511921306,"20":0.06739719453257656,"21":-0.11132927984142618,"22":-0.2618566128283052,"23":0.1149862179102984,"24":0.0073060457269559,"25":-0.11506647654953164,"26":0.009848958382283658,"27":0.15577764642690772,"28":-0.38454511602014774,"29":0.13470417593822015,"30":0.2821775204161919,"31":0.00032960916088238225,"32":0.13219923391659108,"33":0.11741085166841529,"34":-0.1050702588101893,"35":0.00034853826746561825,"36":0.031927505486882064,"37":-0.06273625074046976,"38":-0.04534745493660827,"39":0.2835939265062415,"40":-0.18786572566794874,"41":-0.026223257733869125,"42":-0.25665890155972026,"43":-0.07311307719394991,"44":-0.5160883811441379,"45":-0.024590366264256144,"46":0.09303814049672147,"47":-0.1250092491021056,"48":0.0720202810631171,"49":0.14665522954403687}},{"sx":1,"sy":1,"depth":50,"w":{"0":-0.015179307339270845,"1":0.1591409139942175,"2":0.008436677585383544,"3":-0.048931276468511524,"4":0.12328091010091496,"5":-0.07372078366382973,"6":0.16430943355425157,"7":-0.20640662850050706,"8":0.032876801634841635,"9":-0.20605965694697023,"10":-0.14919457195480776,"11":-0.27601307724424234,"12":-0.17564060872162418,"13":-0.08587040165440327,"14":0.21085856907704087,"15":-0.1682667477569578,"16":0.11014378476776403,"17":-0.06275461201659477,"18":0.061325085262624875,"19":0.07076113080106643,"20":-0.2364835478137393,"21":-0.37125197777355157,"22":0.05407939230001881,"23":0.07316132917785427,"24":-0.10794971087196113,"25":-0.14469375439119264,"26":0.10947076225606446,"27":-0.044703238059708224,"28":0.07163556333973084,"29":0.041593323981907904,"30":0.16801298359475403,"31":-0.22320214530227145,"32":0.0012492277282247664,"33":0.09480813135689631,"34":0.11441477484053973,"35":0.09244798977977502,"36":0.25918758082861315,"37":-0.21434700105072088,"38":-0.1799106372434152,"39":-0.04909658273208979,"40":-0.08258063767844183,"41":0.11727135869143748,"42":-0.07665600257304286,"43":-0.06004964482726138,"44":-0.07200637471690356,"45":0.06937919403015493,"46":0.14493439571989664,"47":0.013081857900272081,"48":0.06713573306142226,"49":-0.02569658718137116}},{"sx":1,"sy":1,"depth":50,"w":{"0":-0.12235323373221003,"1":0.06433973226741847,"2":0.07026564682083213,"3":0.20335101660834973,"4":-0.09651191680140622,"5":-0.08822742112404475,"6":0.26958133219801506,"7":-0.24123046581898064,"8":0.02670888604207861,"9":-0.2602470983124868,"10":0.7610254233146516,"11":0.26740453794897945,"12":-0.14660081372019165,"13":0.28169432622282886,"14":0.031429778177598386,"15":-0.3437489004064698,"16":-0.09947760687928657,"17":-0.3391430293709056,"18":-0.36264741488575736,"19":-0.20864027507892174,"20":0.2776571108587875,"21":-0.2887530012797653,"22":-0.39296611484218985,"23":0.0584667706018105,"24":-0.40493843362432197,"25":0.09384352766889288,"26":0.14107516796563022,"27":0.1874243262232878,"28":-0.5013098543767645,"29":-0.18001295721356236,"30":0.20842634030123272,"31":0.1470105870969976,"32":0.16430541102506482,"33":0.33665225365549223,"34":-0.09171670831206388,"35":-0.04746104581756646,"36":-0.21531495466213268,"37":0.22006477227099536,"38":-0.01874515614022184,"39":0.47588873947781957,"40":-0.07478283197889618,"41":0.16311483728307136,"42":0.055643358573025145,"43":0.2509212271874804,"44":-0.3985229552027612,"45":-0.020313718882629735,"46":0.09951985426806186,"47":0.09550955275504087,"48":0.12970957973613212,"49":0.011835280077715877}},{"sx":1,"sy":1,"depth":50,"w":{"0":0.06314405337194424,"1":-0.11336787306915395,"2":0.17127056929060117,"3":-0.09917005571991097,"4":0.20827825264824104,"5":0.07733779865022775,"6":0.05853931987024111,"7":-0.024383029861490046,"8":0.30468837195834075,"9":-0.3048424885075814,"10":0.07593339008151757,"11":-0.08503501361164532,"12":0.15523711519895642,"13":0.15474003124024222,"14":0.07003177007413204,"15":0.019417884021658602,"16":-0.1360902523217319,"17":0.04360319565874202,"18":-0.13752858455964473,"19":-0.11292511282807047,"20":0.038891834098284596,"21":-0.054444838485674586,"22":-0.3674445072580315,"23":0.0725954812030038,"24":-0.19765990515348997,"25":0.026374925765947,"26":-0.021799435742606007,"27":0.03352820939548881,"28":0.19747129782256173,"29":-0.015352741646701064,"30":0.05416470968715324,"31":0.0021474379948536516,"32":0.0033461603116920757,"33":0.04521952408146703,"34":-0.036776866473531934,"35":0.25378776272701015,"36":-0.09804131111443325,"37":-0.02751051189364688,"38":-0.014322874343418245,"39":-0.13809970154089907,"40":0.1427720941330939,"41":0.07552710058337556,"42":0.07448191623923825,"43":0.05682847101049715,"44":0.19213863608742135,"45":0.13186738746149282,"46":0.05936354253898084,"47":-0.01516555621260986,"48":-0.2546341558163869,"49":-0.044560852308252685}},{"sx":1,"sy":1,"depth":50,"w":{"0":0.01392042746336348,"1":-0.15794530053727188,"2":0.11487893519383408,"3":-0.036013328324429314,"4":0.024698283852839824,"5":0.11994541671733724,"6":-0.06312415138242573,"7":0.4120307261038923,"8":0.11810651678364102,"9":0.13884838648864023,"10":0.015644669585923265,"11":-0.042974216757814446,"12":-0.38669432470253856,"13":0.030950383697857742,"14":-0.16966975366736353,"15":0.047259624109091646,"16":0.04763030551498706,"17":0.3148487537377647,"18":0.04227240413321545,"19":0.02770485222540112,"20":-0.09674206880860504,"21":-0.07997587130718856,"22":0.011765202169522862,"23":-0.11935133215416886,"24":-0.23482511369813602,"25":-0.167955976551295,"26":0.07827105726530885,"27":0.012822905050500143,"28":-0.1335159294237517,"29":0.030504875744311915,"30":0.03997307703415752,"31":0.14356016724244156,"32":0.1100857829549425,"33":0.1500727001384013,"34":0.02269113304619201,"35":-0.12871933394529927,"36":0.157531895641922,"37":0.06197924839320943,"38":-0.08189164568583719,"39":-0.2863241012652803,"40":0.13838579792272407,"41":-0.03709813917330436,"42":-0.047834034318225346,"43":-0.10345594818465911,"44":0.07769390064725464,"45":0.2521469513845642,"46":0.005210868387473165,"47":-0.05581064645953193,"48":0.001163043513170219,"49":0.14013200980522006}},{"sx":1,"sy":1,"depth":50,"w":{"0":-0.12240164758826952,"1":0.17270887029171994,"2":-0.025695611526993515,"3":0.05094397717297312,"4":-0.06155324641476399,"5":0.080438461795205,"6":-0.039190684467700555,"7":0.11877494594558496,"8":-0.08458325687345844,"9":0.010949513669261843,"10":-0.07671327994242472,"11":0.08613464206445247,"12":-0.004365333998009968,"13":-0.10374251082300123,"14":-0.029555550767839417,"15":0.1273372943446455,"16":0.1331163165973956,"17":-0.13992555696585346,"18":-0.1822482740887301,"19":0.10789543569916545,"20":0.00005671566567465096,"21":0.1271055196417573,"22":-0.16511986345284282,"23":-0.10358033659243308,"24":0.1512524382366522,"25":-0.09488836235023149,"26":-0.22710108980364535,"27":-0.08357701370887259,"28":-0.024940324046189486,"29":-0.15864227417136012,"30":-0.010140022645003055,"31":-0.008261701911360223,"32":0.3944856485216334,"33":0.10490470997816195,"34":0.05911902578115688,"35":0.41719768897647275,"36":-0.033366556520576414,"37":0.18736628124664342,"38":0.05736746182911241,"39":-0.24666214843867082,"40":-0.05795730918540856,"41":0.14403407995840414,"42":0.13854056429232017,"43":-0.028237537973126253,"44":-0.2720140860874964,"45":0.06278058694526774,"46":0.04811735556017967,"47":-0.14444370232186857,"48":0.16184436967055046,"49":0.0029762417280616966}},{"sx":1,"sy":1,"depth":50,"w":{"0":-0.21973110513374952,"1":0.05396466896384899,"2":-0.040424088735407225,"3":-0.16680058488170052,"4":-0.21226040067733068,"5":-0.11691497278932178,"6":0.06113122160956017,"7":0.2317806753845817,"8":0.34367809654478215,"9":-0.05316598502042258,"10":0.26916916364077953,"11":0.08395666681872968,"12":0.03663586728400269,"13":0.15800408805288585,"14":-0.18282091289876884,"15":-0.11099416647703918,"16":0.03138624565499128,"17":0.06764054087741607,"18":0.2375106863211793,"19":0.16746143543932765,"20":-0.02985205774448442,"21":-0.038513948300297314,"22":0.17277322473433843,"23":0.07676582344518726,"24":-0.022454862629224196,"25":0.18323189973582435,"26":-0.14636077067704126,"27":0.06273278537397572,"28":0.05861736944390581,"29":0.061700087658429076,"30":0.019655460548987883,"31":-0.21970021530770956,"32":0.0030872135646478204,"33":0.10306691246943142,"34":-0.43807572186453575,"35":-0.03360167840427558,"36":-0.08551133066552151,"37":0.13244454104197825,"38":0.03185156460456292,"39":-0.036492655995105656,"40":-0.2519249249764682,"41":0.259583392754812,"42":-0.15299277917532078,"43":-0.04445520691796387,"44":0.10299389929727093,"45":-0.13042320240073776,"46":0.03800043272737241,"47":-0.16529307322938463,"48":0.18298210540127605,"49":-0.024084179168082757}},{"sx":1,"sy":1,"depth":50,"w":{"0":-0.22435167644091494,"1":0.18336281288728157,"2":0.2022359996552634,"3":-0.07458403900630484,"4":-0.22861520537714722,"5":0.06446801972635059,"6":0.2366324963664475,"7":-0.26316405993349296,"8":0.16027459882960984,"9":0.21895771586620721,"10":0.15255924782476707,"11":-0.08882250815452311,"12":0.06016721306918091,"13":0.11392568472159983,"14":0.2490685561906191,"15":-0.015270769900330813,"16":-0.08945992386419298,"17":0.2565171913007368,"18":-0.1164591573687193,"19":0.04723813787037417,"20":0.0058492115022609655,"21":-0.0798590230686473,"22":-0.3705020562222988,"23":0.22548260016623903,"24":0.15030681106392962,"25":0.057828145114087855,"26":0.03837834153304125,"27":-0.00900664958639258,"28":-0.17766756273256326,"29":0.05597092330018121,"30":0.1162550286807042,"31":-0.0351877435536365,"32":-0.12547272713332439,"33":0.0656757266660648,"34":0.10694445702345769,"35":-0.18813580617952982,"36":0.05640537871634826,"37":-0.06275315210466288,"38":-0.08427292228550749,"39":0.07237180556379678,"40":-0.0930396684490348,"41":0.05897247044632048,"42":-0.03277780130189836,"43":-0.03642286012588526,"44":-0.1790786927713482,"45":0.05745114375633477,"46":0.09809048316551817,"47":0.0939477953558358,"48":0.022152928668374657,"49":-0.05446992283810325}},{"sx":1,"sy":1,"depth":50,"w":{"0":-0.15597216811553233,"1":0.1298280452460546,"2":0.3131018857080939,"3":0.08442884158739372,"4":-0.0998737812570615,"5":-0.1863075999986533,"6":-0.02504864768493615,"7":0.06913996602721008,"8":-0.01683808618745134,"9":-0.29433919320823987,"10":0.47772955509465015,"11":0.13065386613704902,"12":0.1275378597921478,"13":-0.11693376398012033,"14":0.1959099085194258,"15":0.12650331813800658,"16":0.006994238136075115,"17":0.14229597189901758,"18":-0.5871742403053198,"19":0.5134695729200112,"20":0.15886839876763179,"21":-0.1631045962463784,"22":-0.23535088264427736,"23":0.18917411478139884,"24":0.09684548628334125,"25":-0.09177356784284504,"26":-0.00593295857904155,"27":0.06340200912476908,"28":-0.1783703796387212,"29":0.07206509599072611,"30":0.16148208654088342,"31":0.01088330379851258,"32":0.027400989263616792,"33":0.08425087509551167,"34":0.08673353147304691,"35":0.18060777577006337,"36":-0.04607317131710373,"37":0.07619755004783282,"38":-0.0532038725680037,"39":0.21328504502822865,"40":-0.164651896365806,"41":0.11871548402098178,"42":-0.5568269890572795,"43":0.05383343513611958,"44":-0.34759131542234617,"45":0.2861467961513003,"46":0.14355353011350686,"47":0.07844110651579898,"48":0.10035735731222398,"49":0.08995277664269966}},{"sx":1,"sy":1,"depth":50,"w":{"0":0.026110953002706726,"1":-0.009880794675932048,"2":0.1828779837971506,"3":-0.004530615282062543,"4":0.038964391966710796,"5":-0.06430826783262132,"6":0.2719270936667787,"7":-0.09703232033785057,"8":-0.0886470195098727,"9":0.3561143241983008,"10":-0.2331877592353328,"11":-0.18816722829660734,"12":-0.12630387185762323,"13":0.09957412343291197,"14":-0.04212588505322277,"15":0.185442963411141,"16":0.06258149586611227,"17":0.31627234604832,"18":0.132531978548392,"19":0.040864494011732054,"20":0.03388157114996059,"21":0.04050265135082725,"22":0.47041216968337013,"23":-0.07400418535346402,"24":-0.08937448051699998,"25":-0.2058341431344743,"26":0.07306094134307892,"27":0.21118317004078258,"28":0.16414003916087008,"29":0.04689987926171704,"30":-0.22681422755541378,"31":-0.13905496349673324,"32":-0.31879705503871525,"33":-0.22327711241621478,"34":-0.010565519388639184,"35":-0.11243893572887449,"36":0.02045126729244647,"37":0.17807674189788258,"38":-0.06251276418937457,"39":-0.10526072848501351,"40":-0.025417014042930272,"41":-0.21367112558388457,"42":0.08281269282204086,"43":-0.06401640571897829,"44":0.050017311024171,"45":0.020990982280755605,"46":0.08819279837553383,"47":0.30389009609390394,"48":-0.05556438578109986,"49":0.1908937981730894}},{"sx":1,"sy":1,"depth":50,"w":{"0":0.09038585475808271,"1":-0.10295192370510499,"2":-0.21553404876536766,"3":-0.27758923429169924,"4":-0.18875895958332672,"5":0.09557767539102993,"6":-0.38758386400930933,"7":-0.06761428035851201,"8":0.04258413829049507,"9":0.22449950419997114,"10":0.20176705302914175,"11":0.10322959900539307,"12":-0.2522351290214479,"13":0.07381655642085531,"14":0.24051325790108025,"15":-0.25785992278830694,"16":0.1266763707878605,"17":0.016840992866417926,"18":0.021556788868255666,"19":0.1181530634206624,"20":0.02824825548655983,"21":0.07265792789407448,"22":0.041934929278921236,"23":0.3445135437127013,"24":0.21948458320633038,"25":-0.2702206356762117,"26":-0.17686710492415242,"27":-0.18820529513355638,"28":0.2985263968901082,"29":0.01009999730916618,"30":0.24544176944113638,"31":0.08072873649389047,"32":0.017949273590249195,"33":0.1966221621255305,"34":-0.2549159786569359,"35":-0.042542546239902106,"36":-0.20267584930935076,"37":0.0017981694164255762,"38":-0.08212283353828453,"39":-0.061058213250047996,"40":-0.07554246662285433,"41":-0.07017073682584546,"42":0.1373842282715006,"43":0.2458987312738044,"44":0.03586481236770948,"45":-0.08457936371206166,"46":0.06369557539385148,"47":0.0813491328946342,"48":-0.2203615148073817,"49":-0.12745608104906417}},{"sx":1,"sy":1,"depth":50,"w":{"0":0.3069492667613186,"1":0.2910349526751501,"2":0.060775765473648935,"3":-0.08111976402751213,"4":0.0886589846315446,"5":0.10762467054404974,"6":0.057519058207568245,"7":0.23618518653219384,"8":-0.03278410686695795,"9":-0.03685371488509926,"10":0.4088028432255572,"11":0.06393691830240512,"12":0.2167913906150425,"13":-0.02990811673370171,"14":-0.10702057311671834,"15":-0.023174732029550782,"16":0.05096147470439006,"17":-0.07867876011400508,"18":0.24377375652148447,"19":-0.21234586457763288,"20":0.23737819305776414,"21":-0.31740167195536634,"22":-0.21785418156778733,"23":0.07230842644624745,"24":-0.21685838279944625,"25":-0.06287233182161887,"26":0.14345615999355157,"27":0.17002297134202182,"28":-0.17375156592789676,"29":-0.3466296999940237,"30":0.1378263775968795,"31":0.23919066245176357,"32":-0.05914415908092487,"33":-0.14369235359989835,"34":0.23151858593093372,"35":-0.02940663254719888,"36":0.15352564288084117,"37":-0.23620795848837584,"38":-0.09843613384839542,"39":0.49274021775104615,"40":-0.11123862776248977,"41":0.08703800580728972,"42":-0.3341523008608128,"43":-0.1565257002567056,"44":-0.09838059696037435,"45":0.23167126571819616,"46":-0.19325204697407689,"47":0.36833369397809257,"48":-0.13179871896128878,"49":-0.6743659248174907}},{"sx":1,"sy":1,"depth":50,"w":{"0":-0.0794465812235099,"1":-0.09981984451256602,"2":-0.06706959677399746,"3":-0.050056918293287636,"4":0.06409967150897766,"5":0.23023694292658484,"6":0.023634978252132514,"7":0.14345912292311674,"8":0.11327434609907816,"9":-0.10121930669356562,"10":0.04573368582373965,"11":0.25057838715766445,"12":0.015334462984731081,"13":0.20864163720482512,"14":-0.03893328832271486,"15":0.27405363837760477,"16":-0.0711575662061307,"17":0.0593780654353655,"18":0.18166692187118152,"19":-0.010844682011177316,"20":0.025072027837607584,"21":0.10312661792081534,"22":0.07982082452429859,"23":0.08683000543654658,"24":-0.06883423996268352,"25":-0.1934544885116401,"26":0.2444230788522099,"27":0.14090768109359553,"28":0.09376398806139773,"29":-0.12525368010599394,"30":-0.035022372665776104,"31":0.12106216506076192,"32":0.014347699400007834,"33":0.07160181933436137,"34":-0.2625946094342367,"35":0.09152246298462183,"36":-0.15929620140214684,"37":-0.04731443873525484,"38":-0.436220193152624,"39":0.13915670289980528,"40":-0.08345757505912485,"41":0.2847150710884617,"42":-0.08578257546121235,"43":0.21338921407944325,"44":-0.12995336838559676,"45":-0.22659950378402965,"46":0.12526771998969108,"47":0.11419354827214757,"48":-0.14445488139630633,"49":-0.17715334448425357}},{"sx":1,"sy":1,"depth":50,"w":{"0":-0.0937356606004451,"1":-0.030026089433704894,"2":0.1355892512081992,"3":0.12764657192125217,"4":-0.013047295231168179,"5":0.12338821507967042,"6":-0.12229193098571993,"7":0.08684262107160474,"8":0.14571703773394154,"9":-0.017284732921557078,"10":0.09293061535283026,"11":0.050799846021843884,"12":0.027675937968658724,"13":-0.08195231129807698,"14":-0.32895190056493323,"15":0.010657737481487697,"16":0.15591747247569265,"17":-0.11058438909561506,"18":0.009944426430629769,"19":0.27851505971612717,"20":0.22271217113444974,"21":0.15623993883100834,"22":0.06329821951317738,"23":0.09325226550496181,"24":0.056947576538428066,"25":-0.22823281311523153,"26":0.03944405187493648,"27":0.14872787771072696,"28":0.08563152208436839,"29":-0.09112885763746743,"30":0.03903660319434129,"31":0.22601208057313238,"32":0.07952360384598095,"33":-0.12547449929933485,"34":0.0404191226411607,"35":0.023814217944035033,"36":0.005205301322438024,"37":0.25241663666979125,"38":0.02461448715306153,"39":-0.2703505169186408,"40":-0.05150350418166112,"41":0.15528022384474716,"42":0.05242504065474076,"43":-0.09989949455828064,"44":0.127211512143965,"45":-0.043780745372172844,"46":0.010006139399150429,"47":-0.15994210676464485,"48":0.04937318527256872,"49":-0.0229271839390176}},{"sx":1,"sy":1,"depth":50,"w":{"0":0.27396931768721283,"1":-0.004594176613773578,"2":-0.3321564056195613,"3":0.23162551160938763,"4":0.14306945952675745,"5":0.00020870578701452964,"6":-0.28838708501866106,"7":-0.14862023875042998,"8":-0.07103214479676762,"9":0.08590337938594245,"10":-0.1603746526253335,"11":0.18880173116968474,"12":-0.0628968534264594,"13":-0.21975399823750522,"14":0.2401448727680156,"15":0.15025530444039237,"16":0.015138671659767908,"17":0.03403841157861772,"18":0.18996365382910935,"19":-0.23874313543223336,"20":-0.15579917707148105,"21":-0.06434001516534735,"22":-0.13647677005745995,"23":0.06526094323777945,"24":0.38643184263974817,"25":-0.050762983191936145,"26":-0.04113872925017305,"27":-0.04908629576616527,"28":0.0007649522566199388,"29":-0.05035559857778137,"30":0.19595992228124706,"31":-0.006282640459116076,"32":0.4525801003736668,"33":0.14015977131231622,"34":0.10995058953645105,"35":0.2318108522145064,"36":-0.03126258045960872,"37":-0.08793489303681294,"38":-0.06042936864989288,"39":0.2653488643867375,"40":-0.15315991171761578,"41":-0.20052717943464277,"42":0.2604258772170362,"43":-0.0721510888243532,"44":-0.16105399531113374,"45":-0.015919355877866175,"46":0.0283868966631547,"47":0.19607893276584198,"48":0.09697878918305636,"49":0.01739361092669046}},{"sx":1,"sy":1,"depth":50,"w":{"0":-0.08633837792252116,"1":-0.08085625234454817,"2":-0.0012016700639234993,"3":0.26267845992038336,"4":-0.02620900845903705,"5":0.04577217864426888,"6":0.06710034250331026,"7":-0.06457118952634375,"8":0.015781388835974623,"9":-0.44833981092574837,"10":0.010867844309689238,"11":-0.08169474764780253,"12":-0.07412345512369528,"13":0.23208731776287564,"14":0.0461807220996826,"15":0.06667469345431164,"16":-0.14159495720748488,"17":-0.130147763562522,"18":-0.05490133932013922,"19":0.002319642559002635,"20":0.19726153987074352,"21":-0.13990104362464265,"22":-0.39763366332376654,"23":0.15761879380146399,"24":-0.23180812709405269,"25":-0.07690709579155688,"26":-0.004441609717267567,"27":0.20757046347979854,"28":-0.3685331441175096,"29":-0.03331430648165482,"30":0.05091132557290071,"31":-0.006019594397776548,"32":0.12518009101110583,"33":0.2080516608221972,"34":-0.04446425220717536,"35":-0.05597796790784232,"36":-0.19924348259143224,"37":0.11921653880119087,"38":0.2912372606392866,"39":0.22301794078818063,"40":-0.11634483992006796,"41":0.00537899110476496,"42":0.04614476637287466,"43":-0.21833027746129777,"44":-0.2066491571258952,"45":0.18344416857224013,"46":0.09671034106513428,"47":-0.2711970669557678,"48":-0.13974163903860193,"49":0.21274595074631106}},{"sx":1,"sy":1,"depth":50,"w":{"0":0.09545461947939907,"1":-0.04852226356339118,"2":-0.1985333032726755,"3":-0.1627207241344328,"4":0.09276431896361485,"5":-0.013245780633524905,"6":-0.03485794642914014,"7":-0.14279206876772127,"8":-0.024808270249152012,"9":-0.15689960363659186,"10":-0.12057684475321939,"11":0.08086856270885108,"12":0.17817445792965506,"13":0.14034375655678524,"14":0.15971170836164547,"15":0.1731420021706497,"16":0.013534012161590175,"17":0.31628629122173235,"18":0.45960122923175584,"19":0.05525037511835116,"20":-0.08735169706426395,"21":-0.16623899263607417,"22":-0.027552525890307433,"23":0.13680972108339604,"24":0.29268140593416736,"25":0.1183167454404153,"26":-0.05288678981521865,"27":0.212852541999839,"28":0.44126081561757263,"29":-0.038446022812449535,"30":0.1429854479458023,"31":0.14559794312663105,"32":-0.035650580670591334,"33":-0.12089514737356784,"34":-0.018238505667169384,"35":0.03785289395633681,"36":0.054341530633280996,"37":-0.11393246856932863,"38":-0.05142934908803852,"39":0.10609374135670284,"40":-0.1522469758850889,"41":-0.15064547964797292,"42":0.08466588850841236,"43":0.1167749089820155,"44":0.35265079509546127,"45":-0.0475414184434816,"46":-0.12008400921348264,"47":0.12255696795894243,"48":-0.19530496492653732,"49":0.006700967355218551}},{"sx":1,"sy":1,"depth":50,"w":{"0":0.4557431305699224,"1":-0.010043310386738108,"2":-0.040231543913773996,"3":0.10648327451572312,"4":0.09517927456961442,"5":0.0689434060932356,"6":-0.1527718706824905,"7":-0.1695543419130398,"8":-0.3402077360313488,"9":-0.6394288669544029,"10":0.3100141522877803,"11":0.10683750621441723,"12":-0.07255260026388101,"13":0.12132687256684316,"14":-0.3531540140946083,"15":0.2555746769729037,"16":-0.01498848200192067,"17":-0.3756586054509675,"18":0.9425995004027169,"19":-0.15679270955226468,"20":0.2771173409374587,"21":-0.25547963856541284,"22":0.10527097422446464,"23":-0.2288511226394987,"24":-0.3130026896925598,"25":0.011586923328059046,"26":0.33820754618770216,"27":0.15004082657659226,"28":-0.2793820669109667,"29":-0.6497039159261263,"30":0.2344642884692131,"31":0.25381224567662936,"32":0.2571605371399008,"33":-0.17177048618978177,"34":-0.07329794374494498,"35":-0.31708105618893434,"36":0.03867856569807667,"37":0.1782376985210859,"38":-0.331860661258358,"39":0.6456661757707766,"40":0.047070309815466595,"41":0.46305086967831466,"42":0.2500026403736382,"43":0.17800136737321282,"44":0.16336598468093794,"45":-0.012023186232310006,"46":-0.24118859498201778,"47":0.7784729078497451,"48":0.28616365965977536,"49":-2.1130262123507957}},{"sx":1,"sy":1,"depth":50,"w":{"0":0.039162195195640764,"1":0.02502763586292036,"2":0.15708391750838266,"3":-0.13617220223041704,"4":-0.1693125449970785,"5":-0.037364683032368194,"6":0.17671767093284146,"7":0.35079784131564334,"8":0.1863288686908456,"9":-0.1814869810322024,"10":0.2504534063894344,"11":-0.24791691452397366,"12":0.06359054301875762,"13":0.06956452976808943,"14":0.16178747949308478,"15":-0.09601089362831298,"16":-0.18337336825210854,"17":-0.00405289777965236,"18":0.046065685877971704,"19":0.10460859537794084,"20":-0.15772709310383395,"21":0.28991260436310773,"22":-0.026705972424048145,"23":0.09130071494158434,"24":0.01980394090133132,"25":0.05501889836842124,"26":-0.04392754960578355,"27":0.04154079647549262,"28":-0.021041034595394862,"29":-0.2689372880736134,"30":0.1229600192279873,"31":-0.00416575746719238,"32":-0.17925651427016606,"33":-0.29030475171458153,"34":-0.058861091514916364,"35":0.11234042118631705,"36":-0.15482203660949698,"37":-0.18973816033122357,"38":0.03370533696872238,"39":0.25204888391167696,"40":-0.30752252529796437,"41":-0.12072148272247038,"42":-0.05819565811463111,"43":-0.1844576235178836,"44":-0.1354300909877968,"45":-0.2053109421653345,"46":-0.27829579090133344,"47":0.020543995457301255,"48":-0.2702184314669178,"49":0.05281237489629542}},{"sx":1,"sy":1,"depth":50,"w":{"0":-0.09005563636410979,"1":-0.04625438913598996,"2":-0.24311746560550804,"3":0.1524223912487121,"4":0.09192743924029405,"5":-0.20385221023849906,"6":-0.2854706336121405,"7":-0.2666565055850989,"8":-0.019441873138718153,"9":0.2019210045759005,"10":-0.3580982295669268,"11":-0.09445022547382084,"12":-0.09181572332307208,"13":0.20244129867668614,"14":0.27008078673346114,"15":0.11382015383277594,"16":0.13224647450165594,"17":0.150894741108681,"18":0.11353850815133149,"19":-0.01760073618713307,"20":0.34945109766525123,"21":-0.08683015895230099,"22":-0.12178036871125589,"23":-0.12650915676784977,"24":0.32621275840203157,"25":0.05202947609308242,"26":-0.09798634921426962,"27":-0.056671654612634334,"28":0.08123079429923906,"29":0.09248005627927025,"30":-0.024348592660911203,"31":0.10774085719823705,"32":0.2631538429057123,"33":0.20718913841211625,"34":0.11915981563722888,"35":0.15236260014818484,"36":-0.1325747439863819,"37":-0.08295187908898764,"38":-0.1344044158308407,"39":0.16414348218063407,"40":0.048464189121967455,"41":0.06749014701722093,"42":0.1532407005822179,"43":0.0904517644256524,"44":0.3188792644168651,"45":0.023011438509264178,"46":0.021544465173198253,"47":0.2920157276237267,"48":-0.2419086774212747,"49":0.07436395559884094}},{"sx":1,"sy":1,"depth":50,"w":{"0":-0.002195493508785179,"1":0.06967973562992795,"2":0.07168228703768091,"3":-0.07192757037809307,"4":-0.19829286154503292,"5":-0.11832977420689574,"6":0.07238096190271344,"7":0.038371433947739134,"8":-0.25167387956077647,"9":0.5604328710314942,"10":-0.2337126976807809,"11":0.1431126037399335,"12":0.1839611625422292,"13":-0.0003605897864216355,"14":-0.13633064520629595,"15":-0.13536186573240694,"16":0.20738591460123823,"17":-0.11512098197447398,"18":0.37622499689927486,"19":0.21799221897835533,"20":0.1373521520368881,"21":0.351440127385284,"22":0.8163985060647903,"23":-0.21726788322694415,"24":0.3170768564024354,"25":0.09281856334465637,"26":-0.40798013041339304,"27":-0.1229561561346469,"28":0.3375515195750727,"29":0.06505269534013633,"30":-0.19454980632213706,"31":0.012414965832582496,"32":-0.11397708609062765,"33":-0.15643526958771745,"34":0.1144817215344731,"35":0.29792468305906705,"36":0.03388441513568285,"37":0.16704933395404287,"38":0.005243234142951343,"39":-0.36387831605409876,"40":-0.06350448919786457,"41":-0.2531337915939116,"42":0.08469748939971214,"43":-0.2736381722845954,"44":0.2978499589396622,"45":0.12181973497883083,"46":-0.28244228213796985,"47":0.07386181500694451,"48":0.19687336961101226,"49":-0.5208110404974872}},{"sx":1,"sy":1,"depth":50,"w":{"0":-0.08767932444192554,"1":-0.18753434995334223,"2":-0.053842523158730324,"3":0.1242826678013667,"4":0.27021320085733136,"5":0.027203961502530582,"6":-0.3069623180943834,"7":0.15095062239854828,"8":0.08404363915064804,"9":-0.14129469727766922,"10":-0.21363924456065864,"11":0.10530003925575117,"12":0.0818017421640764,"13":-0.12352861214040968,"14":0.24930304922774607,"15":0.19881543902153073,"16":-0.08665438952863859,"17":-0.04752091527994033,"18":0.08344532813026267,"19":0.034346241084765965,"20":0.035646941636724425,"21":-0.16841767869817714,"22":0.13688741366603455,"23":0.155062656269742,"24":0.24314425104674664,"25":0.09066515909376957,"26":0.057803092262222314,"27":-0.08387789910648949,"28":0.21552435455799032,"29":0.01923373965425504,"30":-0.1685790163733388,"31":-0.03302005032573813,"32":-0.055596514654321944,"33":0.13016445768003776,"34":0.023999741111647054,"35":0.1305689153485098,"36":0.018063642295119475,"37":-0.10026010856145161,"38":-0.008276691871759037,"39":0.14269798272463238,"40":-0.02705108156333882,"41":-0.26090442621637894,"42":-0.023518860456406162,"43":-0.0031629287956214886,"44":0.3352934592037524,"45":0.22014689791285733,"46":0.08136936558531212,"47":-0.05530693533794793,"48":0.14478237848989206,"49":0.36317490807936903}},{"sx":1,"sy":1,"depth":50,"w":{"0":-0.12098410549068539,"1":-0.0019861951198401435,"2":0.2833403488722446,"3":-0.2506248744966932,"4":0.24447064921444478,"5":-0.013694214373321618,"6":-0.2532784233199654,"7":0.29349563959819336,"8":-0.10375831545650191,"9":0.09270972528233991,"10":0.2924146616347575,"11":0.15127376302762588,"12":0.25955272804770857,"13":0.03974076683559014,"14":0.07541304476349832,"15":-0.17236650626401878,"16":0.08307092309312535,"17":-0.13509674185464965,"18":-0.12539033953688794,"19":0.09174060357281903,"20":0.19086335197543183,"21":-0.03700879266396369,"22":0.14455040612307588,"23":0.058501392666842136,"24":0.08167023650572287,"25":0.21257977720171936,"26":0.10392571071335749,"27":-0.07118164578412975,"28":-0.15042979514558172,"29":-0.0676005130001108,"30":-0.022689615034081494,"31":-0.04213933384704096,"32":-0.19159692024540476,"33":-0.013108387599759427,"34":-0.08036571473715204,"35":0.19124742086304994,"36":-0.01575673515216301,"37":-0.09368414146093716,"38":-0.11002992394324602,"39":-0.1354966216811853,"40":0.0645757768757554,"41":-0.1282845298784195,"42":0.1964288679954891,"43":-0.09525668092531586,"44":-0.20290056315139005,"45":-0.03557915818220712,"46":-0.21576084008099783,"47":-0.09276459310264168,"48":0.0262700831197332,"49":-0.09564972838883348}},{"sx":1,"sy":1,"depth":50,"w":{"0":-0.007729930929489348,"1":0.03364689653711053,"2":-0.18871370424163944,"3":-0.15811753495913256,"4":-0.13394342374564183,"5":-0.09953434110555562,"6":-0.27168355242090053,"7":0.11540292093106089,"8":0.1983807125407266,"9":0.1297176874600781,"10":-0.15650774534214396,"11":0.013439057342112502,"12":-0.1116855269317558,"13":0.0652653413947465,"14":-0.06336091229762013,"15":-0.1765238460392946,"16":0.1660283859040032,"17":-0.13893594780797577,"18":0.1678744746739953,"19":-0.24054506500539383,"20":0.008746069432766627,"21":0.4585827470879657,"22":0.05214419744419354,"23":-0.18758696669557107,"24":-0.042574252651402356,"25":-0.03446142843109076,"26":-0.10156446553148799,"27":-0.1629198509988629,"28":0.030602826685557877,"29":0.02048345652448198,"30":-0.016597596090480362,"31":-0.40978781736633463,"32":-0.14305764404478427,"33":0.12149056227011497,"34":-0.08325745877470682,"35":0.12273900037445189,"36":0.04998956506912071,"37":0.06135971666648242,"38":-0.12602802079650052,"39":-0.061091185713495415,"40":0.013715923947171235,"41":-0.04993538797143932,"42":0.13647077545222813,"43":0.10496513255404373,"44":-0.005876954514091754,"45":0.008682815070031703,"46":-0.03404297369610322,"47":-0.16733330355295134,"48":0.21221969632341925,"49":0.25205959338448736}},{"sx":1,"sy":1,"depth":50,"w":{"0":-0.10631348596398489,"1":-0.29319297383808124,"2":-0.011239116715316931,"3":0.1427171553888985,"4":-0.08078785499462447,"5":-0.10900247476334314,"6":0.34974622320896837,"7":-0.10950741050094048,"8":0.20693135119223152,"9":0.01985672977598525,"10":-0.09955759698734382,"11":0.03149397786536677,"12":0.06062752452207463,"13":0.07872659187380568,"14":-0.1483785383189297,"15":0.050783227347434234,"16":0.0260580574323981,"17":0.052212944369740194,"18":-0.14340067961490174,"19":-0.029568452228562716,"20":0.13582586700399074,"21":-0.0600391885532285,"22":0.1397896882714429,"23":-0.11203410863354377,"24":-0.2272067336169164,"25":-0.022567446327549964,"26":0.1844020489910097,"27":0.02065437965082544,"28":-0.05566771387907183,"29":0.05959800069075127,"30":-0.051634530345802565,"31":-0.061490313392793934,"32":0.05000652894701358,"33":0.0437643331516066,"34":0.021232368202824717,"35":0.032842221231848635,"36":0.1028041803576092,"37":-0.30554982946163006,"38":0.21093226520693623,"39":-0.13338716316774404,"40":-0.016034401010812376,"41":0.012978755455271725,"42":-0.040254139628083004,"43":-0.14630761993758173,"44":-0.02131398436815147,"45":0.3147925068507396,"46":-0.07417799627413574,"47":0.3287759920614898,"48":0.01888702507473216,"49":0.10756753661968455}},{"sx":1,"sy":1,"depth":50,"w":{"0":-0.25135878746934975,"1":0.16876531450025276,"2":0.1344230715919976,"3":0.10421490212095766,"4":0.23248069337998992,"5":0.010739749865457117,"6":0.04979230939003891,"7":0.14146595473650522,"8":-0.05647460414908774,"9":0.10965313814061355,"10":-0.19963785342659207,"11":-0.38638583667792264,"12":-0.021763617793299002,"13":0.0020824940940047582,"14":0.04948141046841991,"15":0.10293920285790487,"16":0.20477698680698786,"17":0.06882360809902077,"18":-0.03604982430283597,"19":0.16095382228893154,"20":0.1058845363716047,"21":-0.04278736816992251,"22":0.37308688573119353,"23":0.1442588693017426,"24":-0.0743452019999091,"25":0.11196167403150359,"26":0.08286771047264489,"27":0.09111052844039674,"28":-0.241450741169325,"29":0.004964442949263146,"30":-0.132936170241948,"31":-0.3006614956514492,"32":0.03570301178354825,"33":0.040655020189437376,"34":0.07274045863417622,"35":-0.05054564142168427,"36":0.06066789817001144,"37":0.026575338932912376,"38":-0.05227017742935501,"39":0.02470416626002653,"40":0.10658903320230195,"41":0.1145964277496113,"42":-0.19200151789000314,"43":-0.16196349475982455,"44":-0.0313475890778591,"45":0.27970687227166235,"46":-0.20938660153321062,"47":0.193450637423211,"48":0.150379187171354,"49":0.013989078112092589}},{"sx":1,"sy":1,"depth":50,"w":{"0":-0.15313361829516292,"1":-0.0552200118286584,"2":0.04606876774691402,"3":0.016701119476657474,"4":0.3762944594764817,"5":-0.3449819481187294,"6":-0.12471597302892218,"7":0.04730846889188617,"8":-0.0064258670328375365,"9":0.017937322234956976,"10":0.24150291397470766,"11":0.03978368184102552,"12":-0.032906918583065596,"13":0.06595623393522018,"14":0.18817238389388796,"15":-0.0049882038072615355,"16":0.1398594674841947,"17":-0.07443041159456214,"18":-0.12018216314185586,"19":0.22577431802757503,"20":0.15615575513821933,"21":-0.017532901384934164,"22":-0.3713297843258405,"23":-0.002862687509160861,"24":0.04991189700942182,"25":-0.09978242235408007,"26":-0.100406867951418,"27":-0.04227255796406135,"28":-0.19114726922159214,"29":0.015624752989752208,"30":-0.10559809066432936,"31":0.18455804092318595,"32":-0.02542398635419428,"33":-0.059854533581004635,"34":0.07723849890242447,"35":0.09564736133957934,"36":0.15921493070118453,"37":0.0001472529553809955,"38":-0.05937448779940802,"39":-0.08569845172563488,"40":-0.06629044219897687,"41":0.052365099029905264,"42":0.14996329120512403,"43":-0.21843744658314304,"44":-0.13314023403734826,"45":0.1307057542249793,"46":0.008329189935150711,"47":0.18443070013228607,"48":-0.00976343350961125,"49":0.13181530010316064}},{"sx":1,"sy":1,"depth":50,"w":{"0":-0.2319794053121629,"1":0.003624266588649128,"2":-0.1930407657737608,"3":0.0953504292756709,"4":0.32845016410287026,"5":-0.11905430007108771,"6":0.06764765127250115,"7":0.006265016530860005,"8":0.15464979068084134,"9":-0.08716419747243814,"10":-0.21279079344829183,"11":0.07448205851662423,"12":-0.05254347429763002,"13":0.28468697553338634,"14":-0.08348822748275313,"15":-0.1339792100570347,"16":-0.01254429106436201,"17":0.20214228709584875,"18":0.15575443054555901,"19":-0.06523586546007663,"20":-0.3625501728665213,"21":-0.025290130483455672,"22":0.04732012117831461,"23":0.013459889060728127,"24":0.366498838102318,"25":0.14679773120656892,"26":-0.0380235612300555,"27":0.22415059936192183,"28":0.28047454523061527,"29":0.1358739194098288,"30":-0.10020966886478518,"31":-0.02967864519943305,"32":-0.06947815490883338,"33":-0.3541554570331946,"34":0.00815156620857722,"35":-0.028309902233716308,"36":0.02130363879830597,"37":-0.02364634831466916,"38":0.09470645039450636,"39":0.11384611596049059,"40":0.09106909626884509,"41":-0.20893753708049737,"42":0.2082380602752791,"43":-0.005063296167166753,"44":0.2567425896676266,"45":0.2300672807267289,"46":0.0016525565825267442,"47":0.2984447528083827,"48":0.043531479610157436,"49":0.14300322204310198}},{"sx":1,"sy":1,"depth":50,"w":{"0":-0.2317066890392033,"1":0.16382844868172886,"2":-0.16235306083532952,"3":0.059504932451533994,"4":0.037983896138849754,"5":-0.07755169743776706,"6":-0.25951277527038313,"7":-0.042746875796798874,"8":0.0009818441408666828,"9":-0.053151821039663316,"10":0.2396696553662732,"11":-0.13458985173856294,"12":0.050377975750068256,"13":0.22308130362306414,"14":0.09373953284773169,"15":0.14632224799023205,"16":0.060457352802864794,"17":0.08808832482939645,"18":0.13913308289143628,"19":0.3093570391228016,"20":-0.2751526803156128,"21":-0.18468647654865458,"22":0.025778796142217942,"23":-0.001994586187901938,"24":-0.030316971665722923,"25":-0.15316874881227296,"26":0.07342270833178118,"27":-0.2783061282837446,"28":-0.08685434887954172,"29":-0.007298948208510443,"30":0.09244963570917596,"31":0.02766206346350082,"32":-0.14105049995927074,"33":0.09113683481916977,"34":0.07934917364542927,"35":0.04160162586375635,"36":-0.24008722208447097,"37":0.08658905788360857,"38":-0.2890873546720778,"39":-0.060757322506971176,"40":-0.15231716661241637,"41":0.14315680634647573,"42":0.10777761722250208,"43":-0.011438759732991398,"44":-0.07251835303067496,"45":-0.08930824455571847,"46":0.03477326033597135,"47":0.102745186845056,"48":-0.187020241254434,"49":-0.052686711901857135}},{"sx":1,"sy":1,"depth":50,"w":{"0":-0.08840186308076198,"1":0.05171102782137776,"2":-0.049752939523583506,"3":-0.10808482230602912,"4":-0.03778411629307534,"5":-0.009034885077342868,"6":0.1298640439120262,"7":0.4174692062544489,"8":-0.2212457597437415,"9":0.2746597548919431,"10":-0.28540633036650337,"11":-0.26846497042436984,"12":-0.02597463122474815,"13":-0.11083883931839064,"14":0.004676570873839645,"15":-0.06184919857962087,"16":-0.11445662246089645,"17":-0.2503620931880556,"18":-0.5575942950163336,"19":0.13447512244631354,"20":-0.16736524245649426,"21":0.12215262720381145,"22":-0.37378631562341996,"23":-0.10416131571616864,"24":-0.4083531303473246,"25":-0.02211104301191693,"26":-0.27808229160255865,"27":0.0735827036354213,"28":0.4995115887172024,"29":-0.6139030807904025,"30":0.37421387523241634,"31":0.2239355165281701,"32":-0.36872165589636485,"33":-0.17938701318205538,"34":0.4400017000132752,"35":0.06945265504331828,"36":-0.06561724639450633,"37":-0.005087361974628892,"38":0.21911643033433525,"39":0.4137378559626992,"40":0.1084057780327357,"41":0.18279159920203794,"42":-0.2069880730397355,"43":-0.20764545064212597,"44":-0.020700587662085962,"45":-0.2273935766495397,"46":-0.1686431883235968,"47":-0.3273355496289444,"48":-0.009503506426754096,"49":-0.3257812857373656}},{"sx":1,"sy":1,"depth":50,"w":{"0":-0.07705968883815437,"1":0.1422744055223213,"2":0.10617263997491388,"3":-0.10410477696362715,"4":0.08482329324533588,"5":0.15945254723617863,"6":0.16618268848715048,"7":-0.004892167073689388,"8":0.023336756957680897,"9":-0.03540796474365429,"10":0.06861991725021321,"11":-0.28750733014697766,"12":-0.08727390148961284,"13":0.12118787338564752,"14":-0.24006858458316072,"15":0.07539012088548246,"16":-0.09710992494074348,"17":0.028988704312033892,"18":-0.21508697224994847,"19":-0.014596713406219184,"20":-0.024395507771438465,"21":0.03231994687026,"22":-0.2322350859740032,"23":0.13339679904089702,"24":0.21580682134623697,"25":0.006908784537994058,"26":-0.20904895578276111,"27":-0.18404443155035255,"28":-0.27818116891745964,"29":0.024486582658245368,"30":-0.1132747265372904,"31":-0.025308490364280487,"32":-0.10593324267280423,"33":-0.06442803981308814,"34":-0.024465144349288138,"35":-0.08678414374935486,"36":0.07546400394562097,"37":-0.2913735825844785,"38":-0.052515881434635814,"39":0.19315175608854757,"40":0.16444338044850976,"41":-0.17840291903221392,"42":0.1567488007512988,"43":0.11858992179489158,"44":-0.28263660388221307,"45":-0.16084744350322047,"46":-0.33553088080184706,"47":0.11012165004914988,"48":-0.15631458489811875,"49":0.02175117378615063}},{"sx":1,"sy":1,"depth":50,"w":{"0":0.35222902353847896,"1":0.04136064791025897,"2":-0.05722508514623742,"3":-0.016218947445117614,"4":0.1901367782652127,"5":-0.11151321399909231,"6":-0.10601927359092855,"7":0.101992780191655,"8":0.4799642600072135,"9":0.052211397564353626,"10":-0.1272105641098954,"11":-0.06040233069069089,"12":-0.0070077594280389495,"13":-0.1678543335586149,"14":-0.10626268754150958,"15":-0.13794080553842528,"16":-0.08477088286849836,"17":-0.0017516225636352,"18":-0.42955012405777526,"19":-0.3208058883200253,"20":0.3170863746750138,"21":0.15599129289225822,"22":-0.5179477862969702,"23":-0.06420367093568337,"24":-0.5369156874278799,"25":-0.08197587253288609,"26":0.011368688728328254,"27":0.42062048944538716,"28":0.26388601785694166,"29":-0.1410747005712675,"30":0.26644433933903455,"31":-0.02104661319292704,"32":0.24373991225109842,"33":-0.05367079611166808,"34":0.2124186110833031,"35":-0.03483778714327348,"36":-0.028862809262682507,"37":0.044585363663634886,"38":0.13267023488952295,"39":0.2899666863500122,"40":-0.06822025797291756,"41":0.36715774963359255,"42":0.011998215600745706,"43":-0.038620644458034176,"44":-0.17653716711398448,"45":0.2546984505316693,"46":0.14694035076015663,"47":-0.5967365466055119,"48":0.3901176380589379,"49":-0.060501287433307675}},{"sx":1,"sy":1,"depth":50,"w":{"0":0.03836317231628974,"1":0.2245237891123819,"2":-0.14996472319937879,"3":0.01127893455267717,"4":0.11585336953187855,"5":-0.16118466348990998,"6":-0.13401661495251183,"7":-0.10879229513368087,"8":-0.06410625819299393,"9":0.08678964071717604,"10":-0.037060060472760684,"11":0.10605630551607462,"12":-0.03892019866069355,"13":0.028728872016846912,"14":-0.09681969502496343,"15":-0.21537675773300896,"16":-0.05159192870062821,"17":0.3834822552582359,"18":0.16458840792859072,"19":-0.11084582125482909,"20":-0.025350673932625273,"21":0.09041002703357182,"22":0.016295630547217187,"23":0.07332182377336964,"24":0.178940735885092,"25":0.3850622419258988,"26":-0.3868533719384345,"27":-0.005502356488252387,"28":-0.07132812405494218,"29":0.03582586755365739,"30":0.10327188065730003,"31":0.1459767927576277,"32":0.3071522133344405,"33":-0.01816352818099129,"34":0.11919134802298936,"35":-0.2637039524088688,"36":0.010937464940649696,"37":-0.021992160712297395,"38":-0.173130612292927,"39":-0.22438710306468534,"40":0.10463498800969444,"41":-0.0680846318381343,"42":-0.19629765114566383,"43":0.13952821922245823,"44":-0.22277021537336067,"45":-0.06194165792420758,"46":-0.06221026471981659,"47":-0.010124084553032727,"48":-0.19155035028220405,"49":-0.022073496076948234}},{"sx":1,"sy":1,"depth":50,"w":{"0":-0.04660790884436174,"1":-0.09444471181461025,"2":0.012660443109318525,"3":-0.18527739766949405,"4":-0.038943830142999805,"5":-0.10495212068447439,"6":0.0015736211247589671,"7":0.1350062063646224,"8":0.2540577820844678,"9":0.06110082168590991,"10":0.07329029862756993,"11":-0.008821081889689511,"12":0.013926037556004876,"13":-0.03337863430977604,"14":0.2181703465798967,"15":0.003624859641773137,"16":-0.0627308429628032,"17":-0.018751853802397946,"18":0.11516101897945874,"19":0.15368603298953906,"20":0.012967957148392642,"21":-0.07046357965496111,"22":0.1079759444234615,"23":0.11428273952074579,"24":0.24894108818502314,"25":-0.07185396284545234,"26":0.1394268157671631,"27":-0.09666042655109529,"28":0.09930533875367079,"29":-0.02219125803937337,"30":0.007470667954023054,"31":0.14493478142561483,"32":0.12893025106178943,"33":-0.06019160613117251,"34":0.042003603342386286,"35":-0.09972772178721905,"36":-0.21791292456887718,"37":-0.025939247097042505,"38":-0.24924295647962486,"39":-0.024266370956972143,"40":0.08840095756277254,"41":-0.31357478225198504,"42":0.05589328411327601,"43":0.17090721203561385,"44":0.2215722573412887,"45":0.02720648987408015,"46":0.016398169139415886,"47":-0.0444027252483176,"48":0.03579634108284562,"49":-0.025337887140087004}},{"sx":1,"sy":1,"depth":50,"w":{"0":0.07774689966393389,"1":0.13701621171254771,"2":-0.26543615334485404,"3":-0.026128206221064657,"4":-0.20298742584148494,"5":-0.06290599809746251,"6":-0.05205875498771498,"7":0.7345581767200858,"8":0.3354440344106814,"9":0.3930422629264838,"10":-0.15510855537826054,"11":-0.2805038098173004,"12":0.24135272019509998,"13":0.18830964304908263,"14":0.00021749890048912456,"15":-0.2219973714087411,"16":0.1683295985027688,"17":-0.24304807029667125,"18":-0.7045060104356319,"19":0.07371200249468203,"20":0.0011647067889372859,"21":0.5555810309088445,"22":-0.9130373919774609,"23":-0.34237068939486714,"24":-0.5565044116572104,"25":-0.019582752597812142,"26":-0.1398372357895086,"27":0.19757838872528652,"28":0.8590616855549215,"29":-0.5943050264735847,"30":0.10444419183613697,"31":0.0013703441582088762,"32":0.3742416439036466,"33":-0.48881597754215134,"34":0.7753678328279587,"35":0.20913118192038946,"36":0.09935331405864688,"37":-0.03174415022079014,"38":0.2531263339318451,"39":0.6948783327044431,"40":0.15830399662560957,"41":0.5457842088865076,"42":0.36106831411060664,"43":-0.18160247681215302,"44":0.049077761897502334,"45":-0.0009905431244649182,"46":0.10349970447827214,"47":-1.1560530021615667,"48":0.19155823164683733,"49":-0.6030957770528474}},{"sx":1,"sy":1,"depth":50,"w":{"0":-0.056258084717255886,"1":-0.038373649039953175,"2":0.0012104093083489074,"3":-0.192302148360975,"4":-0.043889810989027174,"5":0.04909493921726494,"6":-0.1642155630286105,"7":-0.21118326623103592,"8":-0.19132842260766686,"9":0.3681713403786288,"10":-0.14847578468259914,"11":0.1447437053951175,"12":-0.1172077492183645,"13":0.03942592334288978,"14":-0.15609535200139205,"15":0.09680274992007659,"16":0.12177516341736369,"17":-0.025228866134680325,"18":-0.0063516661814443385,"19":-0.09787064020095343,"20":-0.14147559149830405,"21":-0.09561466843516864,"22":-0.24515408897722804,"23":0.08341121933023314,"24":0.3173170112758277,"25":0.021154099735485557,"26":-0.18520401339801698,"27":0.06488043456287024,"28":0.19393367410105014,"29":-0.22241355333881155,"30":0.08931661824375693,"31":0.14306840911194935,"32":0.23366655478328874,"33":0.03214247708280476,"34":0.24490826475715088,"35":0.025642480528227242,"36":0.11728297873972077,"37":0.18855178417995871,"38":0.018013187307307336,"39":0.009886638446516991,"40":0.16388267484401886,"41":0.22935890656935676,"42":-0.22795812453240702,"43":0.05299759460685469,"44":-0.09121322708279736,"45":0.017419076105203032,"46":-0.019333179283405815,"47":0.06618324979149405,"48":-0.03794778200702351,"49":-0.060390382941227436}},{"sx":1,"sy":1,"depth":50,"w":{"0":-0.2550330183412559,"1":-0.42294148478638954,"2":-0.03948164422907637,"3":0.28678428517761806,"4":0.24615812517057487,"5":0.034501932937668234,"6":0.1129386789399132,"7":-0.1155678034201056,"8":0.35898253630782356,"9":-0.40483664180841866,"10":1.0079262613336204,"11":-0.17524702624639651,"12":-0.23284866234734722,"13":-0.26415270852437095,"14":0.05911816246691731,"15":0.013693635322305902,"16":-0.0037162925118603826,"17":0.1765586167712861,"18":-0.7107040600541165,"19":-0.1897830319438388,"20":0.16277135378416957,"21":-0.26309900719806695,"22":-0.6742930573042072,"23":-0.025457730414056523,"24":-0.3993936256154879,"25":-0.11253676442779804,"26":0.46142944508639855,"27":-0.0012477270319883437,"28":-0.7694502502241068,"29":-0.16692638601682222,"30":-0.10712864625937467,"31":-0.025637200497112884,"32":0.19301174692660888,"33":0.0458948873079013,"34":-0.3387362391046105,"35":-0.09765333372151239,"36":-0.000519012065577742,"37":-0.039589214115078514,"38":-0.03302500574181645,"39":0.16646458494315208,"40":-0.19752752386290198,"41":0.0011229230514376552,"42":-0.5346889354667766,"43":0.01819049102889409,"44":-0.7195167420010569,"45":0.0038168010055133713,"46":0.04844781786819422,"47":-0.11834152636271117,"48":0.010065535437314643,"49":0.5048932269365657}},{"sx":1,"sy":1,"depth":50,"w":{"0":0.10945767220207397,"1":-0.013036609539578997,"2":-0.1786744263062438,"3":-0.24883680651434062,"4":0.07760922904080854,"5":0.04038323830997287,"6":-0.0008266703779342526,"7":0.11329530280144208,"8":0.21273647459294617,"9":-0.15582771319472452,"10":0.00477286721000858,"11":0.3361347598216493,"12":0.15042977946927766,"13":-0.1764256868374333,"14":-0.06337537535483152,"15":-0.01184444153665036,"16":-0.2064903201854345,"17":-0.0981792315511915,"18":-0.022427750789768986,"19":-0.14628569942429454,"20":0.01615050035535798,"21":-0.06015488047192771,"22":0.20224131789864944,"23":-0.09707719832710457,"24":-0.03750063149600303,"25":0.026852755780330216,"26":-0.03177925019370718,"27":-0.22073730925799748,"28":-0.15972377239362665,"29":-0.026313468096286534,"30":0.0848367534439184,"31":-0.2787288611423159,"32":-0.005105093020133853,"33":-0.08740074464031132,"34":-0.0267365042274841,"35":-0.0053770446250286695,"36":0.057977333926489794,"37":0.1536522410386548,"38":0.04344943491468679,"39":-0.08948458781348959,"40":0.008370941627067344,"41":0.1450377383525825,"42":-0.1366642581192765,"43":0.0684745659068777,"44":-0.03882212018739554,"45":-0.06920588565701723,"46":0.17187203246312013,"47":-0.07050595082390768,"48":-0.0887938354780712,"49":0.003522404238882248}},{"sx":1,"sy":1,"depth":50,"w":{"0":0.18699879688956253,"1":0.037084887630675224,"2":0.09462344943021506,"3":-0.291202191097206,"4":-0.15104894252807402,"5":-0.0674029329910169,"6":-0.06048558221938094,"7":-0.03769698981273252,"8":0.02427628771661653,"9":0.08091600390263419,"10":0.18130455375423632,"11":0.15547475825901674,"12":-0.11190524084852171,"13":-0.06490585829221567,"14":0.08585920981836064,"15":0.04007855411500507,"16":-0.04474058200547356,"17":0.12388489707511559,"18":0.03525824388559583,"19":0.013314451594493184,"20":-0.1534801402321357,"21":0.06279403636332048,"22":0.06484579950044393,"23":0.2096359402611417,"24":-0.02415149307083472,"25":-0.11853292357615977,"26":-0.041461450109691995,"27":0.07520431358245963,"28":0.2763019436268419,"29":0.23668499074966945,"30":-0.00398828746434268,"31":-0.17053458416314965,"32":-0.052551877785630086,"33":-0.047221037190066734,"34":-0.10752163019999963,"35":0.12781385656148803,"36":-0.060094165589631036,"37":-0.14184060104608073,"38":0.06539120243519458,"39":-0.13879881452594087,"40":-0.33569246011085463,"41":0.07548096597380656,"42":0.11900825279291165,"43":0.20996869115753292,"44":0.30027045203154407,"45":0.08767701047109198,"46":0.058530440554953905,"47":0.07112769580592718,"48":-0.12809581005562348,"49":0.03421304644802491}},{"sx":1,"sy":1,"depth":50,"w":{"0":0.07617712525047238,"1":-0.09210990099333527,"2":0.12032433835464541,"3":-0.1752850104588741,"4":-0.022091528052739628,"5":0.02819885461057232,"6":-0.039330079245699416,"7":0.2189975498077833,"8":-0.07849572694208269,"9":-0.3855694026808581,"10":-0.06270014840840961,"11":-0.16268059360790926,"12":-0.2655997461397883,"13":-0.19006897483643279,"14":0.18350350891731126,"15":-0.014120458570836056,"16":-0.3210857341456419,"17":-0.1352259709788356,"18":0.17116397871830713,"19":-0.02250673888555901,"20":-0.08432817278880837,"21":0.056393642268937366,"22":-0.22924956408277528,"23":0.05147920697218268,"24":0.16465870765372798,"25":0.0693321017685697,"26":-0.05620229059399419,"27":-0.03583646388877724,"28":-0.42523701052229645,"29":0.007873159012114895,"30":-0.15094999635737713,"31":-0.09143970274685488,"32":-0.13585832153636365,"33":0.10827570949171503,"34":0.2764162106520787,"35":-0.009327507036712153,"36":0.004297428821060325,"37":-0.015037375441217951,"38":0.3019862039211079,"39":0.02886445070892137,"40":-0.1427320182243547,"41":-0.18211270426900475,"42":0.11203689226462889,"43":0.2253120455332494,"44":0.03370903273581059,"45":-0.009754861085167906,"46":-0.29953095239262917,"47":0.002919247044758369,"48":0.1921619600532523,"49":0.22923051617543436}},{"sx":1,"sy":1,"depth":50,"w":{"0":0.1478624223603988,"1":0.00829278042558559,"2":-0.14948519190645215,"3":0.17241062340507013,"4":0.15364981600169456,"5":-0.029680298237435707,"6":-0.03548881027982307,"7":0.057031235722382966,"8":0.050572944313825696,"9":0.02030292830721378,"10":0.4696561286339043,"11":0.07102949753688803,"12":-0.058564913579245766,"13":0.09599449988820759,"14":-0.08439879995155065,"15":0.14087912212667947,"16":-0.008245900479220053,"17":-0.006640272948362559,"18":-0.4280116548945537,"19":-0.34783439394763643,"20":-0.13798787290775094,"21":0.050179361880945655,"22":0.022779848776471833,"23":-0.0874955032901964,"24":-0.12928435122894377,"25":-0.10670234942260584,"26":0.15366650348579558,"27":-0.0030671590734674212,"28":-0.20739672238197332,"29":0.06959080847721824,"30":0.04005843042980065,"31":0.05920771948450683,"32":0.1731357961756244,"33":0.13252716069930107,"34":0.0005756923799856232,"35":0.005845481039490108,"36":-0.4003413099885179,"37":0.20910738157196335,"38":-0.10107781745572356,"39":-0.027055622792635608,"40":-0.28428146796948,"41":0.14879531147690758,"42":0.205741650182282,"43":-0.13943778820601158,"44":-0.2975028011449184,"45":-0.18078458830831196,"46":-0.19128873229689172,"47":0.1998333352171118,"48":0.12192731427327809,"49":0.2938897328305658}}],"biases":{"sx":1,"sy":1,"depth":50,"w":{"0":0.11951518201395908,"1":0.1088761431763711,"2":0.10202716477666987,"3":0.10046461021563187,"4":0.10591815863542711,"5":0.09076184162048541,"6":0.14926615950119135,"7":0.10691697066298665,"8":0.09785699977108346,"9":0.12178240744555954,"10":0.09547499190845908,"11":0.14257408220823295,"12":0.1023604851927815,"13":0.09920571122856668,"14":0.09778707854456163,"15":0.09227139580800546,"16":0.10173901974372551,"17":0.12644339164465773,"18":0.10131063619376067,"19":0.11410108013670721,"20":0.1477036545924272,"21":0.09401057858186546,"22":0.11145638278673825,"23":0.10245661570390617,"24":0.11465605624317385,"25":0.13703438057270956,"26":0.09697795045621387,"27":0.09415463373925345,"28":0.12381199755782178,"29":0.09206838046301927,"30":0.09449425407809392,"31":0.1217751896474857,"32":0.09087683241273961,"33":0.08685168590463567,"34":0.08616570710388136,"35":0.10352942496586041,"36":0.09973435489918415,"37":0.09494250704960773,"38":0.1320790007965497,"39":0.10140743173500022,"40":0.12389751296599306,"41":0.10719437134254382,"42":0.08927927094886806,"43":0.09515331962383888,"44":0.0864864784219478,"45":0.12241003984484354,"46":0.1,"47":0.09950132300448448,"48":0.09436043780702028,"49":0.10937527377409818}}},{"out_depth":50,"out_sx":1,"out_sy":1,"layer_type":"relu"},{"out_depth":3,"out_sx":1,"out_sy":1,"layer_type":"fc","num_inputs":50,"l1_decay_mul":0,"l2_decay_mul":1,"filters":[{"sx":1,"sy":1,"depth":50,"w":{"0":-0.011163900103130517,"1":0.5052162279487327,"2":-0.05699358863559958,"3":-0.2575086937588954,"4":0.2718902310678023,"5":0.1548611539115208,"6":0.46957813677805255,"7":0.1875027988357867,"8":0.13962561968516507,"9":-0.8961116260855334,"10":-0.11407826735411543,"11":-1.2092711753824983,"12":-0.18958868302169393,"13":-0.23289138825497677,"14":0.21846109779103484,"15":-0.15037868493180864,"16":-0.4165778031413436,"17":-1.0553036997244032,"18":0.3985101327471538,"19":-0.011172744177467397,"20":-0.5271547179459861,"21":0.12175154846787561,"22":-0.11079397496144806,"23":0.26191185955436486,"24":-0.751174041841681,"25":0.7150366801478365,"26":0.14836230711922668,"27":-0.04802618305122832,"28":0.35437905832634403,"29":-1.3505025507760553,"30":0.43012755080405285,"31":-0.3555400276509836,"32":0.30845044277537,"33":-0.12177791657474489,"34":-0.15454631588088524,"35":-0.23003764999192744,"36":0.5289474511230995,"37":-0.004647993450697089,"38":-0.09064635851452295,"39":-0.021294169210656726,"40":-0.370745066935219,"41":0.0671697866816228,"42":0.16032634132003143,"43":0.0032575400079822114,"44":0.031501509418897275,"45":-2.0328244678508516,"46":0.1333022686780113,"47":0.0012665635651296777,"48":0.30696677953686696,"49":-0.7796760849689208}},{"sx":1,"sy":1,"depth":50,"w":{"0":0.726700349451918,"1":-0.021301437680577327,"2":0.737533346799147,"3":-0.012084075057532236,"4":0.19021006180946792,"5":0.20774351323231136,"6":0.49404633949967525,"7":0.1358701480339684,"8":-0.14916099045335263,"9":-0.2429182555030613,"10":-0.004818852898066693,"11":-0.6586773752487646,"12":-0.08312746201697072,"13":0.09399953351298358,"14":-0.07036699678378157,"15":-0.3727612968324024,"16":-0.004779493585803935,"17":0.2669588522567127,"18":0.6220799912273914,"19":-0.7414708579639341,"20":-1.021747347680203,"21":-0.5477060616762413,"22":0.017249176119145067,"23":0.18156514209526872,"24":-0.002149049222041959,"25":-0.23270539221600228,"26":-2.792742696805826,"27":-0.35756675112730385,"28":-0.018982006283316307,"29":0.09911666337505988,"30":0.10778138836902457,"31":-0.17699319282406598,"32":-0.31065389853922765,"33":0.40439492212775746,"34":0.5177611108185193,"35":0.10443830581064671,"36":0.35598259791532966,"37":-0.25255753369882,"38":-0.05606309891030615,"39":0.13471458925306817,"40":0.24609074969689695,"41":-0.1209082896707951,"42":-0.16704592978135105,"43":-0.07421275532131252,"44":0.034529165691867744,"45":0.07381786993749152,"46":0.0696172649174508,"47":-0.3170145179617747,"48":0.07358516653133551,"49":0.16824014236285081}},{"sx":1,"sy":1,"depth":50,"w":{"0":0.4966814991725764,"1":0.30913296410922525,"2":-0.0006155801135775313,"3":-0.0682736607101938,"4":0.017937827751406538,"5":0.12364791463051432,"6":-0.7965255938576986,"7":-0.3184450185886344,"8":-0.062127507806545794,"9":-0.11043093585101281,"10":0.11295608188792783,"11":0.10748867619046025,"12":-0.05955976416627611,"13":0.008664666203084941,"14":0.10598381487227797,"15":-0.2812704871681013,"16":0.2968721029105902,"17":0.1437239502136016,"18":-0.2989927801716874,"19":0.44800627961935735,"20":-0.12367608230633409,"21":-0.031454718657206296,"22":-0.21257697906186404,"23":0.6307677061009007,"24":0.14573474151034446,"25":0.18179766296270272,"26":0.043135328487220785,"27":-0.5717212299958838,"28":0.7110144726609898,"29":-0.43613666665866574,"30":0.23643304573196453,"31":0.037948975651535044,"32":-0.07463123556493037,"33":0.01647802196344892,"34":0.07884908069173036,"35":0.07787982765399831,"36":0.11018530042374908,"37":0.05912074266627537,"38":-1.5840842967861202,"39":0.06552084891904808,"40":-1.3531127454208218,"41":0.26319063420285377,"42":0.07153340654352006,"43":-2.6480620358281937,"44":0.45940661704632535,"45":-0.12464672702952827,"46":0.10944972809315213,"47":-0.031631539615716395,"48":-0.4042109586959929,"49":0.3113389666258795}}],"biases":{"sx":1,"sy":1,"depth":3,"w":{"0":0.00011254796017194101,"1":0.009649488966838923,"2":-0.03447913316930986}}},{"out_depth":3,"out_sx":1,"out_sy":1,"layer_type":"regression","num_inputs":3}]}'